{"<unk>": 0, "<pad>": 1, "<sos>": 2, "<eos>": 3, "!": 4, "\"": 5, "\"@@": 6, "#@@": 7, "$": 8, "$@@": 9, "%@@": 10, "&": 11, "&@@": 12, "'": 13, "'@@": 14, "(": 15, "(@@": 16, ")": 17, ").": 18, ")@@": 19, "+": 20, "+@@": 21, ",": 22, ",@@": 23, "-": 24, "-@@": 25, ".": 26, "..": 27, "...": 28, "....": 29, "...@@": 30, "..@@": 31, ".@@": 32, "0": 33, "0,@@": 34, "0-@@": 35, "0.": 36, "00@@": 37, "02@@": 38, "03@@": 39, "05@@": 40, "06@@": 41, "0@@": 42, "1": 43, "1,@@": 44, "1-@@": 45, "1.": 46, "1.000": 47, "10": 48, "100": 49, "100.000": 50, "1000": 51, "100@@": 52, "10@@": 53, "11": 54, "110": 55, "11:@@": 56, "11@@": 57, "12": 58, "12@@": 59, "13": 60, "13@@": 61, "14": 62, "14@@": 63, "15": 64, "150.000": 65, "15@@": 66, "16": 67, "16.@@": 68, "16@@": 69, "17": 70, "17@@": 71, "18": 72, "188@@": 73, "18@@": 74, "19": 75, "1900@@": 76, "1920": 77, "1924": 78, "1937": 79, "1943": 80, "194@@": 81, "1950": 82, "1956": 83, "195@@": 84, "1960": 85, "1961": 86, "1968": 87, "196@@": 88, "1973": 89, "1976": 90, "197@@": 91, "1980": 92, "1984": 93, "1988": 94, "1989": 95, "198@@": 96, "1990": 97, "1992": 98, "1995": 99, "1996": 100, "1998": 101, "199@@": 102, "19@@": 103, "1@@": 104, "2": 105, "2,6": 106, "2,@@": 107, "2-1": 108, "2-@@": 109, "2.": 110, "2.4@@": 111, "2.@@": 112, "20": 113, "200": 114, "2000": 115, "2000@@": 116, "2001": 117, "2005": 118, "2006": 119, "2007": 120, "2008": 121, "2009": 122, "200@@": 123, "2011": 124, "2014": 125, "2015": 126, "2016": 127, "2019": 128, "201@@": 129, "20@@": 130, "21": 131, "21@@": 132, "22": 133, "23": 134, "233": 135, "24": 136, "24@@": 137, "25": 138, "25%": 139, "25.000": 140, "25@@": 141, "26": 142, "27": 143, "27@@": 144, "28": 145, "28@@": 146, "29": 147, "2@@": 148, "3": 149, "3,@@": 150, "3-0": 151, "3-@@": 152, "3.": 153, "30": 154, "300": 155, "30@@": 156, "31": 157, "31@@": 158, "32": 159, "32%": 160, "32@@": 161, "33": 162, "346": 163, "35": 164, "35@@": 165, "38": 166, "39@@": 167, "3@@": 168, "3D": 169, "4": 170, "4,@@": 171, "4.": 172, "40": 173, "400": 174, "40@@": 175, "41": 176, "42": 177, "45@@": 178, "480": 179, "49": 180, "4:@@": 181, "4@@": 182, "5": 183, "5)": 184, "5.": 185, "50": 186, "500": 187, "50@@": 188, "59": 189, "5@@": 190, "6": 191, "6-@@": 192, "6.": 193, "60": 194, "600": 195, "64": 196, "670": 197, "68@@": 198, "6@@": 199, "7": 200, "7)": 201, "7.": 202, "71": 203, "72": 204, "75%": 205, "75@@": 206, "77": 207, "78@@": 208, "7@@": 209, "8": 210, "8.": 211, "80": 212, "800": 213, "80@@": 214, "85@@": 215, "86": 216, "8@@": 217, "9": 218, "9-@@": 219, "9.": 220, "90": 221, "99": 222, "9@@": 223, ":": 224, ":@@": 225, ";": 226, ";@@": 227, "<": 228, "=": 229, "=@@": 230, "?": 231, "?@@": 232, "A": 233, "A.": 234, "A@@": 235, "AC@@": 236, "ADN": 237, "AG": 238, "AI": 239, "AN@@": 240, "AS@@": 241, "AZ@@": 242, "Ab@@": 243, "Abraham": 244, "Ac@@": 245, "Activ@@": 246, "Ad@@": 247, "Aeg@@": 248, "Ag@@": 249, "Ah@@": 250, "Ai": 251, "Air": 252, "Ajax": 253, "Al": 254, "Al-@@": 255, "Al@@": 256, "Alan": 257, "Alas@@": 258, "Alb@@": 259, "Album": 260, "Ale@@": 261, "Alexander": 262, "Am@@": 263, "American": 264, "An@@": 265, "Andrew": 266, "Andro@@": 267, "Android": 268, "Ang@@": 269, "Angel@@": 270, "Anh": 271, "Anh.": 272, "Anh@@": 273, "Anne": 274, "Anton@@": 275, "Ap@@": 276, "Ar@@": 277, "Archi@@": 278, "Argentina": 279, "Arsenal": 280, "Arthur": 281, "Arthur@@": 282, "As@@": 283, "Ash@@": 284, "At@@": 285, "Au@@": 286, "Augus@@": 287, "Awards": 288, "B": 289, "B.": 290, "B@@": 291, "BR@@": 292, "BS@@": 293, "Ba": 294, "Ba@@": 295, "Bag@@": 296, "Bah@@": 297, "Bal@@": 298, "Ban": 299, "Bao": 300, "Bar@@": 301, "Bat@@": 302, "Bayern": 303, "Be@@": 304, "Bec@@": 305, "Ben": 306, "Ben@@": 307, "Bent@@": 308, "Ber@@": 309, "Berkeley": 310, "Bi@@": 311, "Big": 312, "Billboard": 313, "Biz@@": 314, "Bi\u1ec3n": 315, "Blo@@": 316, "Blu@@": 317, "Bo@@": 318, "Bogo@@": 319, "Bon@@": 320, "Bor@@": 321, "Bos@@": 322, "Bou@@": 323, "Boy@@": 324, "Brazil": 325, "Bre@@": 326, "Brien": 327, "Brigh@@": 328, "Bru@@": 329, "Brunei": 330, "Bu@@": 331, "Bul@@": 332, "Bur@@": 333, "Bus@@": 334, "Bu\u1ed5i": 335, "Bu\u1ed9c": 336, "B\u00e0": 337, "B\u00e0i": 338, "B\u00e0n": 339, "B\u00e1": 340, "B\u00e1c": 341, "B\u00e1n": 342, "B\u00e1o": 343, "B\u00ean": 344, "B\u00ecnh": 345, "B\u00f3ng": 346, "B\u1ea1n": 347, "B\u1ea3@@": 348, "B\u1ea3n": 349, "B\u1ea3o": 350, "B\u1ea5t": 351, "B\u1eaf@@": 352, "B\u1eafc": 353, "B\u1eaft": 354, "B\u1ec7nh": 355, "B\u1ecdn": 356, "B\u1ecf": 357, "B\u1ed1": 358, "B\u1ed3": 359, "B\u1ed9": 360, "B\u1ed9t": 361, "B\u1edfi": 362, "C": 363, "C.": 364, "C.@@": 365, "C@@": 366, "CA": 367, "CA@@": 368, "CL@@": 369, "CN@@": 370, "CO@@": 371, "CS@@": 372, "Ca@@": 373, "Cal@@": 374, "Cam@@": 375, "Campuchi@@": 376, "Can@@": 377, "Canada": 378, "Cao": 379, "Car@@": 380, "Carl": 381, "Carlo@@": 382, "Carlos": 383, "Cas@@": 384, "Cat@@": 385, "Cer@@": 386, "Cerato@@": 387, "Ch@@": 388, "Cha": 389, "Cha@@": 390, "Char@@": 391, "Charles": 392, "Chelsea": 393, "Chen": 394, "Chi": 395, "Chi@@": 396, "Chicago": 397, "Chil@@": 398, "Chi\u1ebfc": 399, "Chi\u1ebfn": 400, "Cho": 401, "Christ@@": 402, "Christi@@": 403, "Chu@@": 404, "Chuy\u1ebfn": 405, "Chuy\u1ec7n": 406, "Chu\u1ea9n": 407, "Ch\u00e0@@": 408, "Ch\u00e0ng": 409, "Ch\u00e0o": 410, "Ch\u00e1@@": 411, "Ch\u00e1u": 412, "Ch\u00e2@@": 413, "Ch\u00e2u": 414, "Ch\u00ednh": 415, "Ch\u00fa": 416, "Ch\u00fa@@": 417, "Ch\u00faa": 418, "Ch\u00fang": 419, "Ch\u01b0\u01a1ng": 420, "Ch\u1ea5t": 421, "Ch\u1eafc": 422, "Ch\u1eb3ng": 423, "Ch\u1ec9": 424, "Ch\u1ecb": 425, "Ch\u1ed7": 426, "Ch\u1ee7": 427, "Ch\u1eef": 428, "Ci@@": 429, "City": 430, "Clar@@": 431, "Cle@@": 432, "Club": 433, "Co.": 434, "Co@@": 435, "Coca-@@": 436, "Coca-Cola": 437, "Coi": 438, "Col@@": 439, "Colo@@": 440, "Com@@": 441, "Con": 442, "Con@@": 443, "Coo@@": 444, "Copp@@": 445, "Cor@@": 446, "Coun@@": 447, "Cr@@": 448, "Cre@@": 449, "Cruz": 450, "Cu@@": 451, "Cup": 452, "Cu\u1ed1i": 453, "Cu\u1ed1n": 454, "Cu\u1ed9c": 455, "C\u00e1": 456, "C\u00e1c": 457, "C\u00e1ch": 458, "C\u00e1i": 459, "C\u00e2u": 460, "C\u00f2n": 461, "C\u00f3": 462, "C\u00f4": 463, "C\u00f4-@@": 464, "C\u00f4@@": 465, "C\u00f4ng": 466, "C\u00f9ng": 467, "C\u0103n": 468, "C\u0169ng": 469, "C\u01a1": 470, "C\u01a1@@": 471, "C\u01b0\u1edd@@": 472, "C\u1ea3": 473, "C\u1ea3m": 474, "C\u1ea7n": 475, "C\u1ea7u": 476, "C\u1ea9m": 477, "C\u1eadu": 478, "C\u1ed1": 479, "C\u1ed5": 480, "C\u1ed9ng": 481, "C\u1ee5c": 482, "C\u1ee9": 483, "C\u1eed": 484, "D": 485, "D-@@": 486, "D@@": 487, "Dakota": 488, "Dal@@": 489, "Dan@@": 490, "Danh": 491, "Dani@@": 492, "Dann@@": 493, "Dar@@": 494, "David": 495, "David@@": 496, "De": 497, "De@@": 498, "Dec@@": 499, "Di": 500, "Di@@": 501, "Din@@": 502, "Do": 503, "Do@@": 504, "Doc@@": 505, "Don": 506, "Don@@": 507, "Donald": 508, "Dong@@": 509, "Dor@@": 510, "Dou@@": 511, "Dow@@": 512, "Drag@@": 513, "Du": 514, "Dub@@": 515, "Dun@@": 516, "Dur@@": 517, "Dy@@": 518, "D\u00e2n": 519, "D\u00f2ng": 520, "D\u00f9": 521, "D\u01b0\u01a1ng": 522, "D\u1ecbch": 523, "E": 524, "E-@@": 525, "E@@": 526, "EC@@": 527, "EP": 528, "ER": 529, "Ed@@": 530, "El": 531, "El-@@": 532, "El@@": 533, "Ele@@": 534, "Em": 535, "Emmanu@@": 536, "Empire": 537, "Eng@@": 538, "Es@@": 539, "Esp@@": 540, "F.@@": 541, "F@@": 542, "FBI": 543, "FC": 544, "FI": 545, "FIFA": 546, "Fall": 547, "Fi@@": 548, "Fidel": 549, "Fin@@": 550, "Flo@@": 551, "Football": 552, "For@@": 553, "Foster": 554, "Foun@@": 555, "Fran@@": 556, "Frances@@": 557, "Francis": 558, "Francisco": 559, "Frank@@": 560, "Fre@@": 561, "Friedrich": 562, "Fro@@": 563, "Fu@@": 564, "G@@": 565, "GH@@": 566, "GM": 567, "Ga@@": 568, "Gab@@": 569, "Gal@@": 570, "Game": 571, "Games": 572, "Gar@@": 573, "Gat@@": 574, "Ge@@": 575, "Gen@@": 576, "General": 577, "Geor@@": 578, "George": 579, "Gh@@": 580, "Gho@@": 581, "Gi@@": 582, "Gil@@": 583, "Gi\u00e1": 584, "Gi\u00e1ng": 585, "Gi\u00e1o": 586, "Gi\u1ea3i": 587, "Gi\u1ed1ng": 588, "Gi\u1edbi": 589, "Gi\u1edd": 590, "Go@@": 591, "Gold": 592, "Gor@@": 593, "Gra@@": 594, "Grammy": 595, "Gre@@": 596, "Gro@@": 597, "Gru@@": 598, "Gu@@": 599, "Gusta@@": 600, "Gw@@": 601, "G\u00f6@@": 602, "G\u1ea7n": 603, "H": 604, "H@@": 605, "HIV": 606, "HTML": 607, "Hai": 608, "Hall": 609, "Ham@@": 610, "Hamilton": 611, "Hang": 612, "Har@@": 613, "Harry": 614, "Hart@@": 615, "Harv@@": 616, "Hay@@": 617, "Hein@@": 618, "Hel@@": 619, "Hend@@": 620, "Henry": 621, "Her@@": 622, "Hero@@": 623, "Hi": 624, "Hi@@": 625, "Hill@@": 626, "Hi\u1ebfn": 627, "Hi\u1ebfu": 628, "Hi\u1ec3n": 629, "Hi\u1ec7n": 630, "Hi\u1ec7p": 631, "Ho@@": 632, "Hoa": 633, "Hoff@@": 634, "Hol@@": 635, "Holmes": 636, "Hon@@": 637, "Hor@@": 638, "Hot": 639, "Hou@@": 640, "Ho\u00e0ng": 641, "Hu@@": 642, "Hull": 643, "Hum@@": 644, "Hung": 645, "Hungary": 646, "Huy\u1ec7n": 647, "Hu\u00e2n": 648, "Hy": 649, "H\u00e0": 650, "H\u00e0m": 651, "H\u00e0n": 652, "H\u00e0ng": 653, "H\u00e3y": 654, "H\u00ecnh": 655, "H\u00f2@@": 656, "H\u00f4m": 657, "H\u01a1n": 658, "H\u01b0\u1edbng": 659, "H\u1ea1": 660, "H\u1ea1ng": 661, "H\u1ea1t": 662, "H\u1ea3@@": 663, "H\u1ea3i": 664, "H\u1ea7u": 665, "H\u1eafn": 666, "H\u1ebft": 667, "H\u1ec7": 668, "H\u1ecd": 669, "H\u1ecdc": 670, "H\u1ed3": 671, "H\u1ed3i": 672, "H\u1ed3ng": 673, "H\u1ed9i": 674, "H\u1ee3p": 675, "I": 676, "I.": 677, "I@@": 678, "IC": 679, "II": 680, "II@@": 681, "III": 682, "IM@@": 683, "ISBN": 684, "I_@@": 685, "Igu@@": 686, "Il@@": 687, "Im": 688, "In@@": 689, "Indonesia": 690, "Institute": 691, "Inte@@": 692, "International": 693, "Internet": 694, "Ir@@": 695, "Iran": 696, "Iraq": 697, "Ireland": 698, "Is@@": 699, "Isa@@": 700, "Israel": 701, "Italia": 702, "Italy": 703, "J": 704, "J.": 705, "J.@@": 706, "J@@": 707, "JS": 708, "Ja@@": 709, "Jab@@": 710, "Jac@@": 711, "Jacqu@@": 712, "Jad@@": 713, "Jama@@": 714, "Jamaica": 715, "James": 716, "James@@": 717, "Jan": 718, "Janeiro": 719, "Je@@": 720, "Jean": 721, "Ji@@": 722, "Jim@@": 723, "Jo@@": 724, "Joh@@": 725, "John": 726, "Johnny": 727, "Johnson": 728, "Jong-@@": 729, "Jor@@": 730, "Joseph@@": 731, "Ju@@": 732, "K.": 733, "K@@": 734, "Kan@@": 735, "Kap@@": 736, "Kat@@": 737, "Kazakh@@": 738, "Ke@@": 739, "Ken@@": 740, "Ker@@": 741, "Kh@@": 742, "Khan": 743, "Khan@@": 744, "Khi": 745, "Khmer": 746, "Kho@@": 747, "Khu": 748, "Kh\u00f4@@": 749, "Kh\u00f4ng": 750, "Kim": 751, "King": 752, "Kinh": 753, "Kir@@": 754, "Ki\u1ec3u": 755, "Klaus@@": 756, "Kni@@": 757, "Ko@@": 758, "Kon@@": 759, "Kong": 760, "Kra@@": 761, "Ku@@": 762, "Ky@@": 763, "K\u00f4ng": 764, "K\u1ebf": 765, "K\u1ebft": 766, "K\u1ec3": 767, "K\u1ef3": 768, "K\u1ef3@@": 769, "K\u1ef5": 770, "L": 771, "L@@": 772, "La": 773, "La@@": 774, "Lan": 775, "Lan@@": 776, "Lao": 777, "Lar@@": 778, "Las@@": 779, "Lat@@": 780, "Latakia": 781, "Lati@@": 782, "Latinh": 783, "Lawrence": 784, "Le@@": 785, "Lee": 786, "Leop@@": 787, "Les@@": 788, "Li@@": 789, "Liban": 790, "Life": 791, "Lima": 792, "Lincoln": 793, "Linh": 794, "Live": 795, "Li\u00ean": 796, "Li\u1ec7u": 797, "Lo@@": 798, "Loan": 799, "Lom@@": 800, "Lon@@": 801, "Long@@": 802, "Lor@@": 803, "Lou@@": 804, "Louis": 805, "Louis@@": 806, "Lo\u00e0i": 807, "Lo\u1ea1i": 808, "Lu@@": 809, "Lu\u1eadt": 810, "Ly@@": 811, "Lyn@@": 812, "L\u00e0": 813, "L\u00e0m": 814, "L\u00e0o": 815, "L\u00e1@@": 816, "L\u00fac": 817, "L\u00fd": 818, "L\u0169": 819, "L\u1ea1@@": 820, "L\u1ea1i": 821, "L\u1ea1p": 822, "L\u1ea7n": 823, "L\u1ebd": 824, "L\u1ecbch": 825, "L\u1eddi": 826, "L\u1ee5c": 827, "L\u1eef": 828, "L\u1ef1c": 829, "M": 830, "M-@@": 831, "M.@@": 832, "M@@": 833, "MB@@": 834, "MTV": 835, "MW": 836, "Ma@@": 837, "Mac@@": 838, "Mad@@": 839, "Madrid": 840, "Madrid@@": 841, "Mag@@": 842, "Mak@@": 843, "Mal@@": 844, "Malaysia": 845, "Man@@": 846, "Mand@@": 847, "Mar@@": 848, "Marcus": 849, "Mari@@": 850, "Marie": 851, "Mario": 852, "Marne": 853, "Marshall": 854, "Martin": 855, "Master@@": 856, "Max@@": 857, "Maxim@@": 858, "May@@": 859, "Mc@@": 860, "Me": 861, "Me@@": 862, "Med@@": 863, "Mel@@": 864, "Men@@": 865, "Mendes": 866, "Mer@@": 867, "Merced@@": 868, "Messi": 869, "Mexico": 870, "Microsoft": 871, "Mik@@": 872, "Min@@": 873, "Mi\u1ebfn": 874, "Mo@@": 875, "Mohamed": 876, "Mol@@": 877, "Mon@@": 878, "Moore": 879, "Mor@@": 880, "Mos@@": 881, "Moskva": 882, "Mou@@": 883, "Moun@@": 884, "Mu@@": 885, "Mun@@": 886, "Mur@@": 887, "Mus@@": 888, "Music": 889, "Mu\u1ed1n": 890, "My@@": 891, "Myr@@": 892, "M\u00e0": 893, "M\u00e0y": 894, "M\u00e1@@": 895, "M\u00e1y": 896, "M\u00e3@@": 897, "M\u00ecnh": 898, "M\u00f4ng": 899, "M\u00f9a": 900, "M\u0129": 901, "M\u1ea1@@": 902, "M\u1ea1c": 903, "M\u1ea1ng": 904, "M\u1ea5y": 905, "M\u1eadt": 906, "M\u1eb7c": 907, "M\u1eb7t": 908, "M\u1eb9": 909, "M\u1ecdi": 910, "M\u1ed1i": 911, "M\u1ed7i": 912, "M\u1ed9c": 913, "M\u1ed9t": 914, "M\u1edf": 915, "M\u1ee5c": 916, "M\u1ef9": 917, "M\u1ef9.": 918, "M\u1ef9@@": 919, "N": 920, "N.": 921, "N@@": 922, "NASA": 923, "NP@@": 924, "NY": 925, "Na": 926, "Na@@": 927, "Nag@@": 928, "Nah@@": 929, "Nam": 930, "Nam.": 931, "Nam@@": 932, "Nantes": 933, "Nati@@": 934, "Ne@@": 935, "Nelson": 936, "Net@@": 937, "Nevada": 938, "New": 939, "New@@": 940, "News": 941, "Ng@@": 942, "Nga": 943, "Ngay": 944, "Nghe": 945, "Ngh\u0129a": 946, "Ngh\u1ecb": 947, "Ngo\u00e0i": 948, "Ngo\u1ea1i": 949, "Nguy\u00ean": 950, "Ngu\u1ed3n": 951, "Ng\u00e0@@": 952, "Ng\u00e0i": 953, "Ng\u00e0y": 954, "Ng\u00e2n": 955, "Ng\u00f4n": 956, "Ng\u01b0\u1eddi": 957, "Ng\u1ef1a": 958, "Nh@@": 959, "Nha": 960, "Nhi\u1ec1u": 961, "Nhi\u1ec7m": 962, "Nh\u00e0": 963, "Nh\u00e2n": 964, "Nh\u00ecn": 965, "Nh\u00f3m": 966, "Nh\u0129": 967, "Nh\u01b0": 968, "Nh\u01b0@@": 969, "Nh\u01b0ng": 970, "Nh\u1eadt": 971, "Nh\u1ecb": 972, "Nh\u1eefng": 973, "Ni@@": 974, "Nic@@": 975, "Nichol@@": 976, "Nik@@": 977, "Niki@@": 978, "No@@": 979, "Nobel": 980, "Nor@@": 981, "North": 982, "Nou@@": 983, "Nu@@": 984, "N\u00e0y": 985, "N\u00ean": 986, "N\u00f3": 987, "N\u00f3i": 988, "N\u00fai": 989, "N\u0103m": 990, "N\u0103ng": 991, "N\u01a1i": 992, "N\u1ebfu": 993, "N\u1ed9i": 994, "N\u1eeda": 995, "N\u1eef": 996, "O": 997, "O@@": 998, "Oh": 999, "Oh@@": 1000, "Ohi@@": 1001, "Ok@@": 1002, "Okinawa": 1003, "Oli@@": 1004, "Olympic": 1005, "One": 1006, "Op@@": 1007, "Or@@": 1008, "Oscar": 1009, "Otto": 1010, "Out": 1011, "Ox@@": 1012, "P.": 1013, "P@@": 1014, "Pa@@": 1015, "Pakistan": 1016, "Pal@@": 1017, "Palmer": 1018, "Par@@": 1019, "Paris": 1020, "Paris@@": 1021, "Park": 1022, "Party": 1023, "Pas@@": 1024, "Pat@@": 1025, "Paul": 1026, "Per@@": 1027, "Peru": 1028, "Peter": 1029, "Peter@@": 1030, "Ph@@": 1031, "Phi": 1032, "Phi@@": 1033, "Phil@@": 1034, "Philipp@@": 1035, "Philli@@": 1036, "Phi\u00ean": 1037, "Ph\u00e1@@": 1038, "Ph\u00e1p": 1039, "Ph\u00e1t": 1040, "Ph\u00e2n": 1041, "Ph\u00eda": 1042, "Ph\u00f2ng": 1043, "Ph\u00f3": 1044, "Ph\u00f9": 1045, "Ph\u01b0\u01a1ng": 1046, "Ph\u1ea3i": 1047, "Ph\u1ea7n": 1048, "Ph\u1ed5": 1049, "Ph\u1ee5": 1050, "Ph\u1ee5c": 1051, "Pi@@": 1052, "Pl@@": 1053, "Poin@@": 1054, "Point": 1055, "Pol@@": 1056, "Poly@@": 1057, "Pop": 1058, "Port": 1059, "Pres@@": 1060, "Pri@@": 1061, "Pru@@": 1062, "Py@@": 1063, "Q": 1064, "Q@@": 1065, "Qatar": 1066, "Qu@@": 1067, "Quan": 1068, "Que@@": 1069, "Quy": 1070, "Qu\u00e1": 1071, "Qu\u00e1n": 1072, "Qu\u00e2n": 1073, "Qu\u1ea3n": 1074, "Qu\u1ea3ng": 1075, "Qu\u1eadn": 1076, "Qu\u1ed1@@": 1077, "Qu\u1ed1c": 1078, "R": 1079, "R.": 1080, "R.@@": 1081, "R@@": 1082, "Ra": 1083, "Ra@@": 1084, "Rahman": 1085, "Ram@@": 1086, "Re@@": 1087, "Real": 1088, "Real@@": 1089, "Red": 1090, "Ri@@": 1091, "Richard": 1092, "Rio": 1093, "Ro@@": 1094, "Road@@": 1095, "Rom@@": 1096, "Roma": 1097, "Rome": 1098, "Ronaldo": 1099, "Ross@@": 1100, "Rou@@": 1101, "Ru@@": 1102, "R\u00e9@@": 1103, "R\u00f5": 1104, "R\u1ea5t": 1105, "R\u1eb1ng": 1106, "R\u1ed3i": 1107, "S": 1108, "S@@": 1109, "SC@@": 1110, "SD@@": 1111, "SE@@": 1112, "SI@@": 1113, "SL@@": 1114, "SO@@": 1115, "SS": 1116, "Sa@@": 1117, "Sain@@": 1118, "Sal@@": 1119, "Sam": 1120, "Sam@@": 1121, "Samsung": 1122, "San": 1123, "San@@": 1124, "Sano@@": 1125, "Sao": 1126, "Sap@@": 1127, "Sar@@": 1128, "Sas@@": 1129, "Sat@@": 1130, "Sau": 1131, "Sc@@": 1132, "Sch@@": 1133, "Schmidt": 1134, "Scho@@": 1135, "Sco@@": 1136, "Scot@@": 1137, "Scotland": 1138, "Scott": 1139, "Se@@": 1140, "Sen@@": 1141, "Ser@@": 1142, "Serie": 1143, "Set@@": 1144, "Sh@@": 1145, "Sha@@": 1146, "Shak@@": 1147, "Shaw@@": 1148, "She@@": 1149, "Shi@@": 1150, "Shin@@": 1151, "Show": 1152, "Sh\u014d@@": 1153, "Si@@": 1154, "Sil@@": 1155, "Sim@@": 1156, "Simon": 1157, "Sing@@": 1158, "Singap@@": 1159, "Singapore": 1160, "Sinh": 1161, "Si\u00eau": 1162, "Sky@@": 1163, "Slo@@": 1164, "Slova@@": 1165, "Smith": 1166, "So@@": 1167, "Soci@@": 1168, "Sol@@": 1169, "Solomon": 1170, "Som@@": 1171, "Somalia": 1172, "Son@@": 1173, "Sou@@": 1174, "South": 1175, "Sp@@": 1176, "Spar@@": 1177, "St.": 1178, "St@@": 1179, "Stalin": 1180, "Stand@@": 1181, "Stanis@@": 1182, "State": 1183, "Ste@@": 1184, "Stein@@": 1185, "Sto@@": 1186, "Str@@": 1187, "Stu@@": 1188, "Su@@": 1189, "Sum@@": 1190, "Super": 1191, "Sw@@": 1192, "Swe@@": 1193, "Sy@@": 1194, "Syl@@": 1195, "Syri@@": 1196, "Syria": 1197, "S\u00e1@@": 1198, "S\u00e1u": 1199, "S\u00e2n": 1200, "S\u0129": 1201, "S\u01b0": 1202, "S\u1ea3n": 1203, "S\u1ebd": 1204, "S\u1ed1": 1205, "S\u1ef1": 1206, "T": 1207, "T.": 1208, "T@@": 1209, "TL": 1210, "TP": 1211, "TV": 1212, "TV@@": 1213, "Ta": 1214, "Tah@@": 1215, "Tam": 1216, "Tam@@": 1217, "Tao": 1218, "Tar@@": 1219, "Tas@@": 1220, "Tau@@": 1221, "Tch@@": 1222, "Te@@": 1223, "Tem@@": 1224, "Ter@@": 1225, "Th@@": 1226, "Tha@@": 1227, "Than": 1228, "Thanh": 1229, "The": 1230, "Theo": 1231, "Ther@@": 1232, "Thi\u00ean": 1233, "Thi\u1ebft": 1234, "Thomas": 1235, "Thung": 1236, "Thuy\u1ec1n": 1237, "Thu\u1eadt": 1238, "Th\u00e0nh": 1239, "Th\u00e1@@": 1240, "Th\u00e1i": 1241, "Th\u00e1ng": 1242, "Th\u00edch": 1243, "Th\u00f4i": 1244, "Th\u00f4ng": 1245, "Th\u01b0": 1246, "Th\u01b0a": 1247, "Th\u01b0\u01a1ng": 1248, "Th\u01b0\u1eddng": 1249, "Th\u01b0\u1ee3ng": 1250, "Th\u1ea7n": 1251, "Th\u1eadt": 1252, "Th\u1ebf": 1253, "Th\u1ec9nh": 1254, "Th\u1ecb": 1255, "Th\u1ed1ng": 1256, "Th\u1ed5": 1257, "Th\u1eddi": 1258, "Th\u1ee7": 1259, "Th\u1ee7@@": 1260, "Th\u1ee9": 1261, "Th\u1ef1c": 1262, "Ti@@": 1263, "Til@@": 1264, "Tin@@": 1265, "Ti\u00ea@@": 1266, "Ti\u00ean": 1267, "Ti\u00eau": 1268, "Ti\u1ebfng": 1269, "Ti\u1ec1n": 1270, "Ti\u1ec3u": 1271, "To": 1272, "To@@": 1273, "Today": 1274, "Tokyo": 1275, "Tor@@": 1276, "To\u00e0n": 1277, "Tr@@": 1278, "Traf@@": 1279, "Trang": 1280, "Tri@@": 1281, "Tricho@@": 1282, "Trinidad": 1283, "Tri\u1ec1u": 1284, "Tro@@": 1285, "Trong": 1286, "Tru@@": 1287, "Trum@@": 1288, "Trump": 1289, "Trung": 1290, "Truy": 1291, "Tr\u00e1i": 1292, "Tr\u00ean": 1293, "Tr\u00f2": 1294, "Tr\u01b0\u1edbc": 1295, "Tr\u01b0\u1eddng": 1296, "Tr\u1eadn": 1297, "Tr\u1eafng": 1298, "Tr\u1ee5": 1299, "Tr\u1ee5c": 1300, "Tu@@": 1301, "Tuy": 1302, "Ty@@": 1303, "T\u00e0i": 1304, "T\u00e2@@": 1305, "T\u00e2m": 1306, "T\u00e2n": 1307, "T\u00e2y": 1308, "T\u00ean": 1309, "T\u00ecnh": 1310, "T\u00ednh": 1311, "T\u00f4i": 1312, "T\u01b0": 1313, "T\u01b0\u01a1ng": 1314, "T\u01b0\u1edbng": 1315, "T\u01b0\u1edfng": 1316, "T\u1ea1i": 1317, "T\u1ea5t": 1318, "T\u1eadp": 1319, "T\u1ec9nh": 1320, "T\u1ed1i": 1321, "T\u1ed1t": 1322, "T\u1ed5": 1323, "T\u1ed5ng": 1324, "T\u1ed9i": 1325, "T\u1edb": 1326, "T\u1edbi": 1327, "T\u1ee9": 1328, "T\u1eeb": 1329, "T\u1eed": 1330, "T\u1ef1": 1331, "U": 1332, "U-@@": 1333, "U@@": 1334, "UAE": 1335, "UC": 1336, "UNESCO": 1337, "US@@": 1338, "USD": 1339, "Um@@": 1340, "Umb@@": 1341, "Un@@": 1342, "Under@@": 1343, "United": 1344, "Up": 1345, "Uy": 1346, "V": 1347, "V@@": 1348, "VI@@": 1349, "VT@@": 1350, "Va@@": 1351, "Val@@": 1352, "Var@@": 1353, "Venez@@": 1354, "Victor": 1355, "Video": 1356, "Vil@@": 1357, "Vi\u00ean": 1358, "Vi\u1ec7@@": 1359, "Vi\u1ec7c": 1360, "Vi\u1ec7n": 1361, "Vi\u1ec7t": 1362, "Vua": 1363, "V\u00e0": 1364, "V\u00e0o": 1365, "V\u00ec": 1366, "V\u00ed": 1367, "V\u00f2ng": 1368, "V\u00f4": 1369, "V\u00f9ng": 1370, "V\u0103n": 1371, "V\u0169": 1372, "V\u01b0\u01a1ng": 1373, "V\u1ea5n": 1374, "V\u1eabn": 1375, "V\u1ead@@": 1376, "V\u1eady": 1377, "V\u1ec1": 1378, "V\u1ec7": 1379, "V\u1ecb": 1380, "V\u1ecbnh": 1381, "V\u1edbi": 1382, "V\u1ee5": 1383, "W.": 1384, "W@@": 1385, "Wal@@": 1386, "Wales": 1387, "Wall@@": 1388, "War@@": 1389, "Warsaw": 1390, "Washing@@": 1391, "Washington": 1392, "We@@": 1393, "Weekly": 1394, "Wei": 1395, "West": 1396, "Wh@@": 1397, "Wi@@": 1398, "William": 1399, "Win@@": 1400, "Window@@": 1401, "Windows": 1402, "Wor@@": 1403, "World": 1404, "X": 1405, "X@@": 1406, "Xem": 1407, "Xin": 1408, "Xu\u00e2n": 1409, "X\u00ea": 1410, "X\u00f4": 1411, "X\u01b0\u1edfng": 1412, "Y": 1413, "Y@@": 1414, "Yam@@": 1415, "Ye@@": 1416, "York": 1417, "York@@": 1418, "Yoshi@@": 1419, "You@@": 1420, "Your": 1421, "Yu@@": 1422, "Z.": 1423, "Z@@": 1424, "Zar@@": 1425, "Zealand": 1426, "Zo@@": 1427, "\\@@": 1428, "]": 1429, "]@@": 1430, "_@@": 1431, "a": 1432, "a-@@": 1433, "a.": 1434, "a.@@": 1435, "a@@": 1436, "ab@@": 1437, "ac@@": 1438, "ace@@": 1439, "acy": 1440, "ad": 1441, "ad@@": 1442, "ada@@": 1443, "adi@@": 1444, "ae": 1445, "ae@@": 1446, "af@@": 1447, "ag@@": 1448, "age": 1449, "age@@": 1450, "agu@@": 1451, "ah": 1452, "ah@@": 1453, "ahn": 1454, "ai": 1455, "ai@@": 1456, "ak": 1457, "ak@@": 1458, "aki": 1459, "aki@@": 1460, "al": 1461, "al-@@": 1462, "al@@": 1463, "ala": 1464, "ala@@": 1465, "alan@@": 1466, "album": 1467, "ale": 1468, "ale@@": 1469, "ali@@": 1470, "am": 1471, "am@@": 1472, "ama": 1473, "amb@@": 1474, "ami@@": 1475, "amp@@": 1476, "an": 1477, "an.": 1478, "an@@": 1479, "ana": 1480, "ana@@": 1481, "and": 1482, "and@@": 1483, "ang": 1484, "ang.": 1485, "ang@@": 1486, "anga": 1487, "anh": 1488, "anh@@": 1489, "ani@@": 1490, "ann@@": 1491, "ano@@": 1492, "anp@@": 1493, "ant@@": 1494, "anti@@": 1495, "antine": 1496, "ao": 1497, "ao@@": 1498, "ap@@": 1499, "ar": 1500, "ar@@": 1501, "ard": 1502, "ard@@": 1503, "ards": 1504, "are": 1505, "ari": 1506, "arita": 1507, "art": 1508, "as": 1509, "as@@": 1510, "asa": 1511, "ash@@": 1512, "ashi": 1513, "ashi@@": 1514, "ast@@": 1515, "at": 1516, "at@@": 1517, "ate": 1518, "ate@@": 1519, "ati@@": 1520, "ation": 1521, "ato@@": 1522, "ator": 1523, "au": 1524, "au@@": 1525, "aw": 1526, "aw@@": 1527, "axit": 1528, "ay": 1529, "ay@@": 1530, "az@@": 1531, "azine": 1532, "b": 1533, "b@@": 1534, "ba": 1535, "ba@@": 1536, "bab@@": 1537, "baby": 1538, "bal@@": 1539, "ball@@": 1540, "ban": 1541, "bang": 1542, "bao": 1543, "bar@@": 1544, "bay": 1545, "bay@@": 1546, "be@@": 1547, "ber": 1548, "bi": 1549, "bi@@": 1550, "bin": 1551, "binh": 1552, "bit": 1553, "bi\u00ea@@": 1554, "bi\u00ean": 1555, "bi\u1ebf@@": 1556, "bi\u1ebfn": 1557, "bi\u1ebft": 1558, "bi\u1ec3@@": 1559, "bi\u1ec3n": 1560, "bi\u1ec3u": 1561, "bi\u1ec7@@": 1562, "bi\u1ec7n": 1563, "bi\u1ec7t": 1564, "ble": 1565, "blog@@": 1566, "bo@@": 1567, "bom": 1568, "bom@@": 1569, "bong": 1570, "bro@@": 1571, "bu@@": 1572, "bur@@": 1573, "bu\u00f4n": 1574, "bu\u00fdt": 1575, "bu\u1ed3n": 1576, "bu\u1ed3ng": 1577, "bu\u1ed5i": 1578, "bu\u1ed9c": 1579, "by": 1580, "b\u00e0": 1581, "b\u00e0@@": 1582, "b\u00e0i": 1583, "b\u00e0n": 1584, "b\u00e0o": 1585, "b\u00e0y": 1586, "b\u00e1": 1587, "b\u00e1@@": 1588, "b\u00e1c": 1589, "b\u00e1m": 1590, "b\u00e1n": 1591, "b\u00e1nh": 1592, "b\u00e1o": 1593, "b\u00e1t": 1594, "b\u00e2y": 1595, "b\u00e3@@": 1596, "b\u00e3i": 1597, "b\u00e8": 1598, "b\u00e9": 1599, "b\u00e9@@": 1600, "b\u00e9o": 1601, "b\u00ea@@": 1602, "b\u00ean": 1603, "b\u00ec@@": 1604, "b\u00eca": 1605, "b\u00ecnh": 1606, "b\u00ed": 1607, "b\u00f2": 1608, "b\u00f2@@": 1609, "b\u00f3@@": 1610, "b\u00f3ng": 1611, "b\u00f9": 1612, "b\u00f9ng": 1613, "b\u00fat": 1614, "b\u0103ng": 1615, "b\u01b0\u1edbc": 1616, "b\u1ea1@@": 1617, "b\u1ea1c": 1618, "b\u1ea1ch": 1619, "b\u1ea1i": 1620, "b\u1ea1n": 1621, "b\u1ea1o": 1622, "b\u1ea3": 1623, "b\u1ea3@@": 1624, "b\u1ea3n": 1625, "b\u1ea3ng": 1626, "b\u1ea3o": 1627, "b\u1ea3o@@": 1628, "b\u1ea3y": 1629, "b\u1ea5m": 1630, "b\u1ea5t": 1631, "b\u1ea7u": 1632, "b\u1ea9n": 1633, "b\u1eadc": 1634, "b\u1eadn": 1635, "b\u1eaf@@": 1636, "b\u1eafc": 1637, "b\u1eafn": 1638, "b\u1eaft": 1639, "b\u1eb1@@": 1640, "b\u1eb1ng": 1641, "b\u1ebfp": 1642, "b\u1ec1": 1643, "b\u1ec1n": 1644, "b\u1ec7nh": 1645, "b\u1ecb": 1646, "b\u1ecbt": 1647, "b\u1ecdc": 1648, "b\u1ecdn": 1649, "b\u1ecf": 1650, "b\u1ecf@@": 1651, "b\u1ecfng": 1652, "b\u1ed1": 1653, "b\u1ed1@@": 1654, "b\u1ed1c": 1655, "b\u1ed1n": 1656, "b\u1ed3i": 1657, "b\u1ed3n": 1658, "b\u1ed5": 1659, "b\u1ed9": 1660, "b\u1ed9@@": 1661, "b\u1ed9i": 1662, "b\u1ed9t": 1663, "b\u1edd": 1664, "b\u1edd@@": 1665, "b\u1edfi": 1666, "b\u1ee5i": 1667, "b\u1ee5ng": 1668, "b\u1ee9c": 1669, "b\u1eefa": 1670, "c": 1671, "c.": 1672, "c.@@": 1673, "c@@": 1674, "ca": 1675, "ca@@": 1676, "cacbon": 1677, "cai": 1678, "cal": 1679, "cal@@": 1680, "camera": 1681, "can": 1682, "can@@": 1683, "canh": 1684, "cao": 1685, "cao@@": 1686, "car@@": 1687, "ce": 1688, "ce@@": 1689, "cel@@": 1690, "ch": 1691, "ch@@": 1692, "cha": 1693, "cha@@": 1694, "chai": 1695, "che": 1696, "chi": 1697, "chi@@": 1698, "chia": 1699, "chim": 1700, "chinh": 1701, "chi\u00eam": 1702, "chi\u00ean": 1703, "chi\u1ebf@@": 1704, "chi\u1ebfc": 1705, "chi\u1ebfm": 1706, "chi\u1ebfn": 1707, "chi\u1ebfu": 1708, "chi\u1ec1u": 1709, "cho": 1710, "cho@@": 1711, "chol@@": 1712, "chu": 1713, "chu@@": 1714, "chua": 1715, "chung": 1716, "chuy@@": 1717, "chuy\u00ean": 1718, "chuy\u1ebfn": 1719, "chuy\u1ec3@@": 1720, "chuy\u1ec3n": 1721, "chuy\u1ec7@@": 1722, "chuy\u1ec7n": 1723, "chu\u00f4ng": 1724, "chu\u1ea9@@": 1725, "chu\u1ea9n": 1726, "chu\u1ed7i": 1727, "chu\u1ed9t": 1728, "ch\u00e0": 1729, "ch\u00e0ng": 1730, "ch\u00e0o": 1731, "ch\u00e1@@": 1732, "ch\u00e1n": 1733, "ch\u00e1u": 1734, "ch\u00e1y": 1735, "ch\u00e2n": 1736, "ch\u00e2u": 1737, "ch\u00e9o": 1738, "ch\u00e9p": 1739, "ch\u00ec": 1740, "ch\u00ecm": 1741, "ch\u00ed": 1742, "ch\u00ed@@": 1743, "ch\u00edn": 1744, "ch\u00ednh": 1745, "ch\u00f3": 1746, "ch\u00f3ng": 1747, "ch\u00f4n": 1748, "ch\u00fa": 1749, "ch\u00fa@@": 1750, "ch\u00faa": 1751, "ch\u00fang": 1752, "ch\u00fat": 1753, "ch\u0103m": 1754, "ch\u0129a": 1755, "ch\u01a1@@": 1756, "ch\u01a1i": 1757, "ch\u01b0@@": 1758, "ch\u01b0a": 1759, "ch\u01b0\u01a1ng": 1760, "ch\u01b0\u1edbc": 1761, "ch\u1ea1@@": 1762, "ch\u1ea1m": 1763, "ch\u1ea1y": 1764, "ch\u1ea3": 1765, "ch\u1ea3y": 1766, "ch\u1ea5@@": 1767, "ch\u1ea5m": 1768, "ch\u1ea5n": 1769, "ch\u1ea5p": 1770, "ch\u1ea5t": 1771, "ch\u1eadm": 1772, "ch\u1eafc": 1773, "ch\u1eafn": 1774, "ch\u1eb3ng": 1775, "ch\u1eb7n": 1776, "ch\u1eb7t": 1777, "ch\u1ebf": 1778, "ch\u1ebf@@": 1779, "ch\u1ebft": 1780, "ch\u1ec9": 1781, "ch\u1ec9@@": 1782, "ch\u1ec9nh": 1783, "ch\u1ecb": 1784, "ch\u1ecb@@": 1785, "ch\u1ecbu": 1786, "ch\u1ecd@@": 1787, "ch\u1ecdn": 1788, "ch\u1ed1i": 1789, "ch\u1ed1ng": 1790, "ch\u1ed1t": 1791, "ch\u1ed3ng": 1792, "ch\u1ed7": 1793, "ch\u1edd": 1794, "ch\u1ee3": 1795, "ch\u1ee5c": 1796, "ch\u1ee5p": 1797, "ch\u1ee7": 1798, "ch\u1ee7@@": 1799, "ch\u1ee7ng": 1800, "ch\u1ee9": 1801, "ch\u1ee9@@": 1802, "ch\u1ee9a": 1803, "ch\u1ee9c": 1804, "ch\u1ee9ng": 1805, "ch\u1eebng": 1806, "ch\u1eef": 1807, "ch\u1eefa": 1808, "ci@@": 1809, "co": 1810, "co@@": 1811, "coi": 1812, "col@@": 1813, "com@@": 1814, "con": 1815, "con@@": 1816, "cong": 1817, "console": 1818, "cre@@": 1819, "cu@@": 1820, "cung": 1821, "cu\u1ed1i": 1822, "cu\u1ed1n": 1823, "cu\u1ed9c": 1824, "cu\u1ed9n": 1825, "c\u00e0": 1826, "c\u00e0i": 1827, "c\u00e0ng": 1828, "c\u00e0y": 1829, "c\u00e1": 1830, "c\u00e1@@": 1831, "c\u00e1c": 1832, "c\u00e1ch": 1833, "c\u00e1ch@@": 1834, "c\u00e1i": 1835, "c\u00e1m": 1836, "c\u00e1nh": 1837, "c\u00e1o": 1838, "c\u00e1t": 1839, "c\u00e2@@": 1840, "c\u00e2n": 1841, "c\u00e2u": 1842, "c\u00e2y": 1843, "c\u00e3i": 1844, "c\u00f2n": 1845, "c\u00f3": 1846, "c\u00f3@@": 1847, "c\u00f4": 1848, "c\u00f4@@": 1849, "c\u00f4ng": 1850, "c\u00f9@@": 1851, "c\u00f9ng": 1852, "c\u00fai": 1853, "c\u00fam": 1854, "c\u00fap": 1855, "c\u0103n": 1856, "c\u0103ng": 1857, "c\u0169": 1858, "c\u0169@@": 1859, "c\u0169ng": 1860, "c\u01a1": 1861, "c\u01a1@@": 1862, "c\u01a1n": 1863, "c\u01b0": 1864, "c\u01b0@@": 1865, "c\u01b0\u1edbi": 1866, "c\u01b0\u1edbp": 1867, "c\u01b0\u1edd@@": 1868, "c\u01b0\u1eddi": 1869, "c\u01b0\u1eddng": 1870, "c\u01b0\u1ee1ng": 1871, "c\u01b0\u1ee3c": 1872, "c\u1ea1n": 1873, "c\u1ea1nh": 1874, "c\u1ea3": 1875, "c\u1ea3@@": 1876, "c\u1ea3i": 1877, "c\u1ea3m": 1878, "c\u1ea3n": 1879, "c\u1ea3nh": 1880, "c\u1ea5@@": 1881, "c\u1ea5m": 1882, "c\u1ea5p": 1883, "c\u1ea5t": 1884, "c\u1ea5u": 1885, "c\u1ea7@@": 1886, "c\u1ea7m": 1887, "c\u1ea7n": 1888, "c\u1ea7u": 1889, "c\u1ea9n": 1890, "c\u1ead@@": 1891, "c\u1eadn": 1892, "c\u1eadp": 1893, "c\u1eadu": 1894, "c\u1eafn": 1895, "c\u1eb7@@": 1896, "c\u1eb7n": 1897, "c\u1ecf": 1898, "c\u1ed1": 1899, "c\u1ed1i": 1900, "c\u1ed1ng": 1901, "c\u1ed1t": 1902, "c\u1ed5": 1903, "c\u1ed5@@": 1904, "c\u1ed5ng": 1905, "c\u1ed7": 1906, "c\u1ed9@@": 1907, "c\u1ed9ng": 1908, "c\u1ed9t": 1909, "c\u1edd": 1910, "c\u1edfi": 1911, "c\u1ee1": 1912, "c\u1ee5": 1913, "c\u1ee5c": 1914, "c\u1ee7": 1915, "c\u1ee7@@": 1916, "c\u1ee7a": 1917, "c\u1ee9": 1918, "c\u1ee9@@": 1919, "c\u1ee9ng": 1920, "c\u1ee9u": 1921, "c\u1eed": 1922, "c\u1eed@@": 1923, "c\u1eeda": 1924, "c\u1ef1": 1925, "c\u1ef1@@": 1926, "c\u1ef1c": 1927, "c\u1ef1u": 1928, "d": 1929, "d@@": 1930, "da": 1931, "da@@": 1932, "dad": 1933, "dan": 1934, "danh": 1935, "dao": 1936, "de": 1937, "de@@": 1938, "den@@": 1939, "der": 1940, "der@@": 1941, "dex@@": 1942, "dge": 1943, "di": 1944, "di@@": 1945, "din": 1946, "dinh": 1947, "dio@@": 1948, "dis@@": 1949, "di\u1ec5@@": 1950, "di\u1ec5n": 1951, "di\u1ec7n": 1952, "di\u1ec7t": 1953, "do": 1954, "do@@": 1955, "doanh": 1956, "dol@@": 1957, "don": 1958, "don@@": 1959, "doping": 1960, "dor@@": 1961, "dot": 1962, "du": 1963, "du@@": 1964, "dung": 1965, "duy": 1966, "duy@@": 1967, "duy\u00ean": 1968, "duy\u1ec7t": 1969, "du\u1ec7": 1970, "dy": 1971, "dy@@": 1972, "d\u00e0@@": 1973, "d\u00e0i": 1974, "d\u00e0n": 1975, "d\u00e0ng": 1976, "d\u00e0nh": 1977, "d\u00e0y": 1978, "d\u00e1m": 1979, "d\u00e1ng": 1980, "d\u00e2@@": 1981, "d\u00e2n": 1982, "d\u00e2ng": 1983, "d\u00e2y": 1984, "d\u00e3": 1985, "d\u00e3y": 1986, "d\u00ec": 1987, "d\u00ednh": 1988, "d\u00f2@@": 1989, "d\u00f2ng": 1990, "d\u00f5i": 1991, "d\u00f9": 1992, "d\u00f9ng": 1993, "d\u01b0@@": 1994, "d\u01b0\u01a1ng": 1995, "d\u01b0\u1edbi": 1996, "d\u01b0\u1eddng": 1997, "d\u01b0\u1ee1ng": 1998, "d\u1ea1@@": 1999, "d\u1ea1ng": 2000, "d\u1ea1y": 2001, "d\u1ea3i": 2002, "d\u1ea5u": 2003, "d\u1ea7@@": 2004, "d\u1ea7n": 2005, "d\u1ea7u": 2006, "d\u1eabn": 2007, "d\u1eady": 2008, "d\u1eb7m": 2009, "d\u1ec5": 2010, "d\u1ec7t": 2011, "d\u1ecb": 2012, "d\u1ecbch": 2013, "d\u1ecbch@@": 2014, "d\u1ecbp": 2015, "d\u1ecbu": 2016, "d\u1ecdc": 2017, "d\u1ed1c": 2018, "d\u1ed1i": 2019, "d\u1ed3n": 2020, "d\u1eddi": 2021, "d\u1edf": 2022, "d\u1ee1": 2023, "d\u1ee5": 2024, "d\u1ee5@@": 2025, "d\u1ee5c": 2026, "d\u1ee5ng": 2027, "d\u1ee9t": 2028, "d\u1eebng": 2029, "d\u1eef": 2030, "d\u1ef1": 2031, "d\u1ef1@@": 2032, "d\u1ef1a": 2033, "d\u1ef1ng": 2034, "e": 2035, "e-@@": 2036, "e.": 2037, "e.@@": 2038, "e@@": 2039, "ea": 2040, "eb@@": 2041, "ec": 2042, "ec@@": 2043, "ed": 2044, "ed@@": 2045, "ee": 2046, "eg@@": 2047, "ei@@": 2048, "ek@@": 2049, "el": 2050, "el@@": 2051, "ela": 2052, "ela@@": 2053, "eli@@": 2054, "ell@@": 2055, "ella": 2056, "elli@@": 2057, "em": 2058, "em@@": 2059, "en": 2060, "en@@": 2061, "ena": 2062, "enc@@": 2063, "enn@@": 2064, "eno@@": 2065, "ens@@": 2066, "ent": 2067, "enz@@": 2068, "eo@@": 2069, "er": 2070, "er-@@": 2071, "er@@": 2072, "ere@@": 2073, "eri@@": 2074, "ero": 2075, "ero@@": 2076, "err@@": 2077, "ers": 2078, "es": 2079, "es@@": 2080, "esh": 2081, "ess@@": 2082, "essa": 2083, "essen": 2084, "est": 2085, "est@@": 2086, "ester": 2087, "et": 2088, "et@@": 2089, "eta": 2090, "eth@@": 2091, "eto": 2092, "eto@@": 2093, "ette": 2094, "eu@@": 2095, "ex@@": 2096, "ey": 2097, "ey@@": 2098, "f": 2099, "f@@": 2100, "fan": 2101, "fe@@": 2102, "fen@@": 2103, "ff@@": 2104, "fi@@": 2105, "fiel@@": 2106, "fil@@": 2107, "for": 2108, "for@@": 2109, "ford": 2110, "fri@@": 2111, "ft": 2112, "ft@@": 2113, "g": 2114, "g@@": 2115, "ga": 2116, "ga@@": 2117, "game": 2118, "gan@@": 2119, "gar": 2120, "ge@@": 2121, "gen": 2122, "ger": 2123, "gh": 2124, "gh@@": 2125, "ghi": 2126, "gh\u00e9p": 2127, "gh\u00ea": 2128, "gh\u00ea@@": 2129, "gh\u1ebf": 2130, "gi@@": 2131, "gia": 2132, "gia@@": 2133, "giai": 2134, "gian": 2135, "gian@@": 2136, "giao": 2137, "gie": 2138, "gin": 2139, "gi\u00e0": 2140, "gi\u00e0nh": 2141, "gi\u00e0u": 2142, "gi\u00e1": 2143, "gi\u00e1@@": 2144, "gi\u00e1c": 2145, "gi\u00e1m": 2146, "gi\u00e1n": 2147, "gi\u00e1o": 2148, "gi\u00e1p": 2149, "gi\u00e2y": 2150, "gi\u00fa@@": 2151, "gi\u00fap": 2152, "gi\u01b0\u1eddng": 2153, "gi\u1ea3": 2154, "gi\u1ea3@@": 2155, "gi\u1ea3i": 2156, "gi\u1ea3m": 2157, "gi\u1ea3n": 2158, "gi\u1ea3ng": 2159, "gi\u1ea5u": 2160, "gi\u1ea5y": 2161, "gi\u1eadn": 2162, "gi\u1eb7t": 2163, "gi\u1ebft": 2164, "gi\u1ecdng": 2165, "gi\u1ecfi": 2166, "gi\u1ed1ng": 2167, "gi\u1edb@@": 2168, "gi\u1edbi": 2169, "gi\u1edd": 2170, "gi\u1edd@@": 2171, "gi\u1eef": 2172, "gi\u1eefa": 2173, "gn@@": 2174, "go": 2175, "go@@": 2176, "goo@@": 2177, "gra@@": 2178, "gu@@": 2179, "gue": 2180, "gy@@": 2181, "g\u00e0": 2182, "g\u00e0i": 2183, "g\u00e1i": 2184, "g\u00e2y": 2185, "g\u00e3": 2186, "g\u00ec": 2187, "g\u00f3@@": 2188, "g\u00f3c": 2189, "g\u00f3i": 2190, "g\u00f3p": 2191, "g\u0103ng": 2192, "g\u01b0\u01a1ng": 2193, "g\u1ea5p": 2194, "g\u1ea7n": 2195, "g\u1eafn": 2196, "g\u1eafng": 2197, "g\u1eb7p": 2198, "g\u1ecdi": 2199, "g\u1ecdn": 2200, "g\u1ed1@@": 2201, "g\u1ed1c": 2202, "g\u1ed3m": 2203, "g\u1ed7": 2204, "g\u1ed7@@": 2205, "g\u1ee1": 2206, "g\u1ee3i": 2207, "g\u1ee3n": 2208, "g\u1eedi": 2209, "h": 2210, "h@@": 2211, "ha": 2212, "ha@@": 2213, "hai": 2214, "hai@@": 2215, "har@@": 2216, "hay": 2217, "hay@@": 2218, "he@@": 2219, "head@@": 2220, "heo": 2221, "her@@": 2222, "hi": 2223, "hi@@": 2224, "hi\u1ebf@@": 2225, "hi\u1ebfm": 2226, "hi\u1ebfn": 2227, "hi\u1ec3@@": 2228, "hi\u1ec3m": 2229, "hi\u1ec3n": 2230, "hi\u1ec3u": 2231, "hi\u1ec7@@": 2232, "hi\u1ec7n": 2233, "hi\u1ec7p": 2234, "hi\u1ec7u": 2235, "ho": 2236, "ho@@": 2237, "hoa": 2238, "hoan": 2239, "hoang": 2240, "hon": 2241, "ho\u00e0": 2242, "ho\u00e0@@": 2243, "ho\u00e0n": 2244, "ho\u00e0ng": 2245, "ho\u1ea1@@": 2246, "ho\u1ea1ch": 2247, "ho\u1ea1i": 2248, "ho\u1ea1n": 2249, "ho\u1ea1t": 2250, "ho\u1ea3ng": 2251, "ho\u1eb7c": 2252, "hr@@": 2253, "hu@@": 2254, "huy": 2255, "huy\u1ec1n": 2256, "huy\u1ec7n": 2257, "hu\u1ea5n": 2258, "hy": 2259, "hydro@@": 2260, "h\u00e0": 2261, "h\u00e0@@": 2262, "h\u00e0i": 2263, "h\u00e0m": 2264, "h\u00e0n": 2265, "h\u00e0ng": 2266, "h\u00e0nh": 2267, "h\u00e0o": 2268, "h\u00e1": 2269, "h\u00e1@@": 2270, "h\u00e1t": 2271, "h\u00e2m": 2272, "h\u00e3@@": 2273, "h\u00e3ng": 2274, "h\u00e3y": 2275, "h\u00e8": 2276, "h\u00ec@@": 2277, "h\u00ecnh": 2278, "h\u00edt": 2279, "h\u00f2": 2280, "h\u00f2@@": 2281, "h\u00f2n": 2282, "h\u00f4": 2283, "h\u00f4@@": 2284, "h\u00f4m": 2285, "h\u00f4n": 2286, "h\u00f9@@": 2287, "h\u00f9ng": 2288, "h\u00fat": 2289, "h\u01a1@@": 2290, "h\u01a1i": 2291, "h\u01a1n": 2292, "h\u01b0": 2293, "h\u01b0@@": 2294, "h\u01b0\u01a1@@": 2295, "h\u01b0\u01a1ng": 2296, "h\u01b0\u1edbc": 2297, "h\u01b0\u1edbng": 2298, "h\u01b0\u1edfng": 2299, "h\u1ea1": 2300, "h\u1ea1@@": 2301, "h\u1ea1i": 2302, "h\u1ea1m": 2303, "h\u1ea1n": 2304, "h\u1ea1ng": 2305, "h\u1ea1nh": 2306, "h\u1ea1t": 2307, "h\u1ea3": 2308, "h\u1ea3@@": 2309, "h\u1ea3i": 2310, "h\u1ea5p": 2311, "h\u1ea7m": 2312, "h\u1ea7u": 2313, "h\u1ead@@": 2314, "h\u1eadu": 2315, "h\u1eafn": 2316, "h\u1eb1n": 2317, "h\u1eb1ng": 2318, "h\u1eb3n": 2319, "h\u1eb9n": 2320, "h\u1eb9p": 2321, "h\u1ebft": 2322, "h\u1ec1": 2323, "h\u1ec7": 2324, "h\u1ec7t": 2325, "h\u1ecd": 2326, "h\u1ecd@@": 2327, "h\u1ecdc": 2328, "h\u1ecdp": 2329, "h\u1ecf@@": 2330, "h\u1ecfi": 2331, "h\u1ed1i": 2332, "h\u1ed3": 2333, "h\u1ed3@@": 2334, "h\u1ed3i": 2335, "h\u1ed3n": 2336, "h\u1ed3ng": 2337, "h\u1ed5": 2338, "h\u1ed5@@": 2339, "h\u1ed7": 2340, "h\u1ed7n": 2341, "h\u1ed9": 2342, "h\u1ed9@@": 2343, "h\u1ed9i": 2344, "h\u1ed9p": 2345, "h\u1ee3@@": 2346, "h\u1ee3p": 2347, "h\u1ee9a": 2348, "h\u1ee9ng": 2349, "h\u1eef@@": 2350, "h\u1eefu": 2351, "i": 2352, "i-@@": 2353, "i.": 2354, "i.@@": 2355, "i@@": 2356, "ia": 2357, "ib": 2358, "ic@@": 2359, "ica": 2360, "ichi@@": 2361, "ici@@": 2362, "id": 2363, "id@@": 2364, "ide": 2365, "ide@@": 2366, "ider": 2367, "ider@@": 2368, "ig@@": 2369, "ik@@": 2370, "iko": 2371, "il": 2372, "il@@": 2373, "ile": 2374, "ili@@": 2375, "ill": 2376, "ill@@": 2377, "ille": 2378, "im": 2379, "im@@": 2380, "ima": 2381, "in": 2382, "in.": 2383, "in@@": 2384, "ina": 2385, "ind@@": 2386, "ine": 2387, "ine@@": 2388, "ines": 2389, "ines@@": 2390, "ing": 2391, "ing@@": 2392, "ington": 2393, "ini": 2394, "ini@@": 2395, "ino@@": 2396, "int": 2397, "inter@@": 2398, "ion": 2399, "ir": 2400, "ir@@": 2401, "is": 2402, "is@@": 2403, "iss": 2404, "it@@": 2405, "ite": 2406, "ito": 2407, "ity": 2408, "itz": 2409, "iv@@": 2410, "iz@@": 2411, "i\u00ea@@": 2412, "i\u00eau": 2413, "i\u1ebf@@": 2414, "i\u1ec1@@": 2415, "i\u1ec3u": 2416, "i\u1ec7@@": 2417, "i\u1ec7u": 2418, "j": 2419, "j@@": 2420, "ja@@": 2421, "jaz@@": 2422, "ji": 2423, "ji@@": 2424, "jo@@": 2425, "ju@@": 2426, "k": 2427, "k-@@": 2428, "k.": 2429, "k@@": 2430, "ka": 2431, "ka@@": 2432, "ke@@": 2433, "kh@@": 2434, "kha@@": 2435, "khai": 2436, "khi": 2437, "khi@@": 2438, "khi\u1ebf@@": 2439, "khi\u1ebfn": 2440, "khi\u1ec3n": 2441, "kho": 2442, "kho@@": 2443, "khoa": 2444, "khoang": 2445, "khoe": 2446, "kho\u00e1ng": 2447, "kho\u1ea3n": 2448, "kho\u1ea3ng": 2449, "kho\u1ea3nh": 2450, "kho\u1ebb": 2451, "khu": 2452, "khu@@": 2453, "khung": 2454, "khuy\u00ean": 2455, "khuy\u1ebfn": 2456, "khu\u00f4n": 2457, "khu\u1ea9n": 2458, "kh\u00e1": 2459, "kh\u00e1@@": 2460, "kh\u00e1c": 2461, "kh\u00e1ch": 2462, "kh\u00e1i": 2463, "kh\u00e1m": 2464, "kh\u00e1n": 2465, "kh\u00e1ng": 2466, "kh\u00e1t": 2467, "kh\u00ed": 2468, "kh\u00ed@@": 2469, "kh\u00edch": 2470, "kh\u00f3": 2471, "kh\u00f3@@": 2472, "kh\u00f3i": 2473, "kh\u00f4": 2474, "kh\u00f4@@": 2475, "kh\u00f4i": 2476, "kh\u00f4ng": 2477, "kh\u00fac": 2478, "kh\u0103n": 2479, "kh\u1ea3": 2480, "kh\u1ea3o": 2481, "kh\u1ea5u": 2482, "kh\u1ea9u": 2483, "kh\u1eafc": 2484, "kh\u1eafp": 2485, "kh\u1ecfi": 2486, "kh\u1ed1i": 2487, "kh\u1ed1n": 2488, "kh\u1ed5": 2489, "kh\u1ed5@@": 2490, "kh\u1edfi": 2491, "kh\u1ee7ng": 2492, "kh\u1eed": 2493, "ki": 2494, "ki@@": 2495, "kia": 2496, "kig@@": 2497, "kim": 2498, "kin": 2499, "kin@@": 2500, "kinh": 2501, "ki\u00ean": 2502, "ki\u00eau": 2503, "ki\u1ebf@@": 2504, "ki\u1ebfm": 2505, "ki\u1ebfn": 2506, "ki\u1ec3@@": 2507, "ki\u1ec3m": 2508, "ki\u1ec3u": 2509, "ki\u1ec7@@": 2510, "ki\u1ec7m": 2511, "ki\u1ec7n": 2512, "ki\u1ec7t": 2513, "km": 2514, "km@@": 2515, "ko": 2516, "ko@@": 2517, "ks@@": 2518, "ku": 2519, "ku@@": 2520, "ky@@": 2521, "k\u00e9m": 2522, "k\u00e9o": 2523, "k\u00ea": 2524, "k\u00ea@@": 2525, "k\u00eanh": 2526, "k\u00eau": 2527, "k\u00ec": 2528, "k\u00ec@@": 2529, "k\u00ed": 2530, "k\u00edch": 2531, "k\u00edn": 2532, "k\u00ednh": 2533, "k\u00fd": 2534, "k\u1ebb": 2535, "k\u1ebf": 2536, "k\u1ebf@@": 2537, "k\u1ebft": 2538, "k\u1ec3": 2539, "k\u1ec3@@": 2540, "k\u1ec9": 2541, "k\u1ecbch": 2542, "k\u1ecbp": 2543, "k\u1ef3": 2544, "k\u1ef3@@": 2545, "k\u1ef7": 2546, "k\u1ef9": 2547, "l": 2548, "l@@": 2549, "la": 2550, "la.": 2551, "la@@": 2552, "lai": 2553, "lam": 2554, "lan": 2555, "lan@@": 2556, "land": 2557, "land@@": 2558, "lang": 2559, "lao": 2560, "lao@@": 2561, "lav": 2562, "le": 2563, "le-@@": 2564, "le@@": 2565, "ler": 2566, "ler@@": 2567, "les@@": 2568, "let@@": 2569, "ley": 2570, "li": 2571, "li@@": 2572, "lia": 2573, "lie": 2574, "lin@@": 2575, "ling": 2576, "ling@@": 2577, "linh": 2578, "lipid": 2579, "lis@@": 2580, "lit@@": 2581, "li\u00ean": 2582, "li\u1ec1n": 2583, "li\u1ec7@@": 2584, "li\u1ec7t": 2585, "li\u1ec7u": 2586, "lo": 2587, "lo@@": 2588, "log@@": 2589, "logi@@": 2590, "lon": 2591, "long@@": 2592, "lo\u00e0i": 2593, "lo\u1ea1@@": 2594, "lo\u1ea1i": 2595, "lo\u1ea1n": 2596, "lo\u1ea1t": 2597, "lu@@": 2598, "lui": 2599, "lus": 2600, "luy\u1ec7n": 2601, "lu\u00f4n": 2602, "lu\u1ead@@": 2603, "lu\u1eadn": 2604, "lu\u1eadt": 2605, "ly": 2606, "ly@@": 2607, "l\u00e0": 2608, "l\u00e0@@": 2609, "l\u00e0m": 2610, "l\u00e0n": 2611, "l\u00e0ng": 2612, "l\u00e0nh": 2613, "l\u00e1": 2614, "l\u00e1i": 2615, "l\u00e2@@": 2616, "l\u00e2m": 2617, "l\u00e2n": 2618, "l\u00e2u": 2619, "l\u00e3@@": 2620, "l\u00e3m": 2621, "l\u00e3ng": 2622, "l\u00e3nh": 2623, "l\u00e3o": 2624, "l\u00e9@@": 2625, "l\u00ea@@": 2626, "l\u00ean": 2627, "l\u00ed@@": 2628, "l\u00ednh": 2629, "l\u00f2": 2630, "l\u00f2@@": 2631, "l\u00f2ng": 2632, "l\u00f4@@": 2633, "l\u00f4i": 2634, "l\u00f5i": 2635, "l\u00f9i": 2636, "l\u00f9n": 2637, "l\u00fa@@": 2638, "l\u00fac": 2639, "l\u00fd": 2640, "l\u00fd@@": 2641, "l\u0103n": 2642, "l\u0129nh": 2643, "l\u0169": 2644, "l\u01a1@@": 2645, "l\u01b0@@": 2646, "l\u01b0ng": 2647, "l\u01b0u": 2648, "l\u01b0\u01a1ng": 2649, "l\u01b0\u1edbi": 2650, "l\u01b0\u1edbt": 2651, "l\u01b0\u1ee1i": 2652, "l\u01b0\u1ee3@@": 2653, "l\u01b0\u1ee3c": 2654, "l\u01b0\u1ee3ng": 2655, "l\u01b0\u1ee3t": 2656, "l\u1ea1": 2657, "l\u1ea1@@": 2658, "l\u1ea1c": 2659, "l\u1ea1i": 2660, "l\u1ea1nh": 2661, "l\u1ea5n": 2662, "l\u1ea5y": 2663, "l\u1ea7@@": 2664, "l\u1ea7m": 2665, "l\u1ea7n": 2666, "l\u1ea7y": 2667, "l\u1eabn": 2668, "l\u1eadp": 2669, "l\u1eadp@@": 2670, "l\u1eadu": 2671, "l\u1eafm": 2672, "l\u1eafng": 2673, "l\u1eafp": 2674, "l\u1eb7@@": 2675, "l\u1eb7n": 2676, "l\u1eb7p": 2677, "l\u1ebb": 2678, "l\u1ebd": 2679, "l\u1ec1": 2680, "l\u1ec1u": 2681, "l\u1ec5": 2682, "l\u1ec5@@": 2683, "l\u1ec7": 2684, "l\u1ec7@@": 2685, "l\u1ec7ch": 2686, "l\u1ec7nh": 2687, "l\u1ecbch": 2688, "l\u1ecd@@": 2689, "l\u1ecfng": 2690, "l\u1ed1i": 2691, "l\u1ed3@@": 2692, "l\u1ed7@@": 2693, "l\u1ed7i": 2694, "l\u1ed9": 2695, "l\u1edb@@": 2696, "l\u1edbn": 2697, "l\u1edbp": 2698, "l\u1edd@@": 2699, "l\u1eddi": 2700, "l\u1ee1": 2701, "l\u1ee3@@": 2702, "l\u1ee3i": 2703, "l\u1ee3n": 2704, "l\u1ee5c": 2705, "l\u1eeb@@": 2706, "l\u1eeba": 2707, "l\u1eeda": 2708, "l\u1ef1a": 2709, "l\u1ef1c": 2710, "m": 2711, "m.": 2712, "m@@": 2713, "ma": 2714, "ma@@": 2715, "mai": 2716, "mal": 2717, "man": 2718, "man@@": 2719, "mand@@": 2720, "mang": 2721, "mang@@": 2722, "manga": 2723, "mar@@": 2724, "mat@@": 2725, "may": 2726, "may@@": 2727, "mbi@@": 2728, "me": 2729, "me@@": 2730, "ment": 2731, "mer": 2732, "mes@@": 2733, "mi": 2734, "mi@@": 2735, "min@@": 2736, "minh": 2737, "minh@@": 2738, "mi\u00eau": 2739, "mi\u1ebfng": 2740, "mi\u1ebfu": 2741, "mi\u1ec1n": 2742, "mi\u1ec5n": 2743, "mi\u1ec7@@": 2744, "mi\u1ec7ng": 2745, "mo@@": 2746, "mong": 2747, "mou@@": 2748, "mu@@": 2749, "mua": 2750, "mu\u00f4@@": 2751, "mu\u1ed1i": 2752, "mu\u1ed1n": 2753, "mu\u1ed9@@": 2754, "my": 2755, "m\u00e0": 2756, "m\u00e0@@": 2757, "m\u00e0n": 2758, "m\u00e0ng": 2759, "m\u00e0u": 2760, "m\u00e0y": 2761, "m\u00e1@@": 2762, "m\u00e1i": 2763, "m\u00e1t": 2764, "m\u00e1u": 2765, "m\u00e1y": 2766, "m\u00e2y": 2767, "m\u00e3": 2768, "m\u00e3@@": 2769, "m\u00e3i": 2770, "m\u00e3n": 2771, "m\u00e8o": 2772, "m\u00e9@@": 2773, "m\u00e9t": 2774, "m\u00ec@@": 2775, "m\u00ecn": 2776, "m\u00ecnh": 2777, "m\u00f2": 2778, "m\u00f3c": 2779, "m\u00f3n": 2780, "m\u00f3ng": 2781, "m\u00f4": 2782, "m\u00f4@@": 2783, "m\u00f4i": 2784, "m\u00f4n": 2785, "m\u00f9@@": 2786, "m\u00f9a": 2787, "m\u00f9i": 2788, "m\u00fai": 2789, "m\u0129": 2790, "m\u0169": 2791, "m\u0169i": 2792, "m\u01a1": 2793, "m\u01b0a": 2794, "m\u01b0u": 2795, "m\u01b0\u1eddi": 2796, "m\u01b0\u1ee3n": 2797, "m\u1ea1@@": 2798, "m\u1ea1c": 2799, "m\u1ea1ch": 2800, "m\u1ea1i": 2801, "m\u1ea1n": 2802, "m\u1ea1ng": 2803, "m\u1ea1nh": 2804, "m\u1ea3ng": 2805, "m\u1ea5t": 2806, "m\u1ea5y": 2807, "m\u1eabu": 2808, "m\u1eadp": 2809, "m\u1eadt": 2810, "m\u1eaf@@": 2811, "m\u1eafc": 2812, "m\u1eaft": 2813, "m\u1eb7@@": 2814, "m\u1eb7c": 2815, "m\u1eb7t": 2816, "m\u1eb9": 2817, "m\u1eb9@@": 2818, "m\u1ebb": 2819, "m\u1ebd": 2820, "m\u1ec1m": 2821, "m\u1ec7nh": 2822, "m\u1ec7t": 2823, "m\u1ecbn": 2824, "m\u1ecdc": 2825, "m\u1ecdi": 2826, "m\u1ed1c": 2827, "m\u1ed1i": 2828, "m\u1ed3i": 2829, "m\u1ed3m": 2830, "m\u1ed7i": 2831, "m\u1ed9": 2832, "m\u1ed9@@": 2833, "m\u1ed9t": 2834, "m\u1edb@@": 2835, "m\u1edbi": 2836, "m\u1eddi": 2837, "m\u1edf": 2838, "m\u1edf@@": 2839, "m\u1ee1": 2840, "m\u1ee5": 2841, "m\u1ee5c": 2842, "m\u1ee9c": 2843, "m\u1eebng": 2844, "m\u1ef1c": 2845, "n": 2846, "n.": 2847, "n@@": 2848, "na": 2849, "na@@": 2850, "nam": 2851, "nay": 2852, "nay@@": 2853, "ne": 2854, "ne@@": 2855, "nes": 2856, "nes@@": 2857, "nesia": 2858, "net@@": 2859, "ney": 2860, "ng": 2861, "ng.": 2862, "ng@@": 2863, "ngang": 2864, "ngay": 2865, "ngay@@": 2866, "nger": 2867, "ngh@@": 2868, "nghe": 2869, "nghi": 2870, "nghi@@": 2871, "nghi\u00eam": 2872, "nghi\u00ean": 2873, "nghi\u1ec7@@": 2874, "nghi\u1ec7m": 2875, "nghi\u1ec7p": 2876, "ngh\u00e8o": 2877, "ngh\u0129": 2878, "ngh\u0129@@": 2879, "ngh\u0129a": 2880, "ngh\u1ec7": 2881, "ngh\u1ec7@@": 2882, "ngh\u1ec9": 2883, "ngh\u1ecb": 2884, "ngh\u1ecbch": 2885, "ngo": 2886, "ngo@@": 2887, "ngoan": 2888, "ngon": 2889, "ngo\u00e0@@": 2890, "ngo\u00e0i": 2891, "ngo\u1ea1i": 2892, "ngu": 2893, "ngu@@": 2894, "nguy": 2895, "nguy\u00ean": 2896, "nguy\u1ec1n": 2897, "nguy\u1ec7n": 2898, "ngu\u1ed3n": 2899, "ng\u00e0@@": 2900, "ng\u00e0i": 2901, "ng\u00e0n": 2902, "ng\u00e0nh": 2903, "ng\u00e0y": 2904, "ng\u00e2m": 2905, "ng\u00e2n": 2906, "ng\u00f4i": 2907, "ng\u00f4n": 2908, "ng\u00f5": 2909, "ng\u0103n": 2910, "ng\u0169": 2911, "ng\u01b0ng": 2912, "ng\u01b0\u01a1@@": 2913, "ng\u01b0\u01a1i": 2914, "ng\u01b0\u1edd@@": 2915, "ng\u01b0\u1eddi": 2916, "ng\u01b0\u1ee1ng": 2917, "ng\u01b0\u1ee3c": 2918, "ng\u1ea1c": 2919, "ng\u1ea1i": 2920, "ng\u1ea1o": 2921, "ng\u1ea7m": 2922, "ng\u1eabu": 2923, "ng\u1eafn": 2924, "ng\u1eaft": 2925, "ng\u1ecdn": 2926, "ng\u1ed1c": 2927, "ng\u1ed3@@": 2928, "ng\u1ed3i": 2929, "ng\u1edd": 2930, "ng\u1ee5": 2931, "ng\u1ee7": 2932, "ng\u1eeba": 2933, "ng\u1eebng": 2934, "ng\u1eef": 2935, "ng\u1eef@@": 2936, "ng\u1ef1a": 2937, "nh": 2938, "nh.": 2939, "nh@@": 2940, "nha": 2941, "nha@@": 2942, "nhanh": 2943, "nhau": 2944, "nhi": 2945, "nhi\u00ea@@": 2946, "nhi\u00ean": 2947, "nhi\u00eau": 2948, "nhi\u1ec1u": 2949, "nhi\u1ec5@@": 2950, "nhi\u1ec5m": 2951, "nhi\u1ec5u": 2952, "nhi\u1ec7@@": 2953, "nhi\u1ec7m": 2954, "nhi\u1ec7t": 2955, "nhu": 2956, "nhu\u1eadn": 2957, "nh\u00e0": 2958, "nh\u00e0@@": 2959, "nh\u00e1nh": 2960, "nh\u00e2@@": 2961, "nh\u00e2n": 2962, "nh\u00ecn": 2963, "nh\u00f3m": 2964, "nh\u0169": 2965, "nh\u01b0": 2966, "nh\u01b0@@": 2967, "nh\u01b0ng": 2968, "nh\u01b0\u1eddng": 2969, "nh\u01b0\u1ee3ng": 2970, "nh\u1ea1@@": 2971, "nh\u1ea1c": 2972, "nh\u1ea1y": 2973, "nh\u1ea3y": 2974, "nh\u1ea5@@": 2975, "nh\u1ea5n": 2976, "nh\u1ea5t": 2977, "nh\u1ead@@": 2978, "nh\u1eadn": 2979, "nh\u1eadp": 2980, "nh\u1eadt": 2981, "nh\u1eafc": 2982, "nh\u1eafn": 2983, "nh\u1eb1m": 2984, "nh\u1eb9": 2985, "nh\u1ecb": 2986, "nh\u1ecbp": 2987, "nh\u1ecf": 2988, "nh\u1ecf@@": 2989, "nh\u1edb": 2990, "nh\u1edb@@": 2991, "nh\u1edd": 2992, "nh\u1ee5c": 2993, "nh\u1eefng": 2994, "ni@@": 2995, "nin": 2996, "ninh": 2997, "ni\u00ean": 2998, "ni\u1ec1m": 2999, "ni\u1ec7m": 3000, "no": 3001, "no@@": 3002, "ns": 3003, "nung": 3004, "nu\u00f4i": 3005, "nu\u1ed1t": 3006, "ny": 3007, "n\u00e0@@": 3008, "n\u00e0o": 3009, "n\u00e0y": 3010, "n\u00e0y@@": 3011, "n\u00e1t": 3012, "n\u00e2ng": 3013, "n\u00e3o": 3014, "n\u00e9m": 3015, "n\u00e9t": 3016, "n\u00ea@@": 3017, "n\u00ean": 3018, "n\u00eau": 3019, "n\u00f3": 3020, "n\u00f3@@": 3021, "n\u00f3i": 3022, "n\u00f3ng": 3023, "n\u00f4": 3024, "n\u00f4ng": 3025, "n\u00fai": 3026, "n\u00fat": 3027, "n\u0103@@": 3028, "n\u0103m": 3029, "n\u0103m@@": 3030, "n\u0103ng": 3031, "n\u01a1@@": 3032, "n\u01a1i": 3033, "n\u01b0\u01a1ng": 3034, "n\u01b0\u1edb@@": 3035, "n\u01b0\u1edbc": 3036, "n\u1ea1n": 3037, "n\u1ea1p": 3038, "n\u1ea5@@": 3039, "n\u1eafm": 3040, "n\u1eafng": 3041, "n\u1eb1m": 3042, "n\u1eb7ng": 3043, "n\u1ebfu": 3044, "n\u1ec1": 3045, "n\u1ec1n": 3046, "n\u1ecd": 3047, "n\u1ed1i": 3048, "n\u1ed3ng": 3049, "n\u1ed5": 3050, "n\u1ed5@@": 3051, "n\u1ed5i": 3052, "n\u1ed7i": 3053, "n\u1ed9i": 3054, "n\u1ee3": 3055, "n\u1ee5": 3056, "n\u1eeda": 3057, "n\u1eef": 3058, "n\u1eef@@": 3059, "n\u1eefa": 3060, "o": 3061, "o.": 3062, "o@@": 3063, "ob@@": 3064, "oc@@": 3065, "of": 3066, "off@@": 3067, "ok@@": 3068, "ol": 3069, "ol@@": 3070, "ola": 3071, "old": 3072, "ole": 3073, "oli": 3074, "om@@": 3075, "on": 3076, "on-@@": 3077, "on.": 3078, "on@@": 3079, "ona": 3080, "onal": 3081, "ong": 3082, "onium": 3083, "ons": 3084, "op@@": 3085, "opera": 3086, "or": 3087, "or@@": 3088, "ore": 3089, "ori": 3090, "ori@@": 3091, "os@@": 3092, "osa": 3093, "ou@@": 3094, "oue": 3095, "our": 3096, "oxy": 3097, "o\u00e0@@": 3098, "p": 3099, "p.": 3100, "p@@": 3101, "p_@@": 3102, "pa@@": 3103, "pac@@": 3104, "pad@@": 3105, "pan@@": 3106, "par@@": 3107, "part@@": 3108, "pe": 3109, "pe@@": 3110, "pen@@": 3111, "per@@": 3112, "ph@@": 3113, "pha": 3114, "pha@@": 3115, "phe": 3116, "phi": 3117, "phi@@": 3118, "phim": 3119, "phim@@": 3120, "phi\u00ean": 3121, "phi\u1ebfu": 3122, "phi\u1ec1n": 3123, "pho": 3124, "pho@@": 3125, "phong": 3126, "phos@@": 3127, "phu": 3128, "ph\u00e1": 3129, "ph\u00e1@@": 3130, "ph\u00e1i": 3131, "ph\u00e1n": 3132, "ph\u00e1o": 3133, "ph\u00e1p": 3134, "ph\u00e1t": 3135, "ph\u00e2n": 3136, "ph\u00e9@@": 3137, "ph\u00e9p": 3138, "ph\u00ea": 3139, "ph\u00ed": 3140, "ph\u00ed@@": 3141, "ph\u00eda": 3142, "ph\u00f2@@": 3143, "ph\u00f2ng": 3144, "ph\u00f3": 3145, "ph\u00f3@@": 3146, "ph\u00f3ng": 3147, "ph\u00f4i": 3148, "ph\u00f9": 3149, "ph\u00fa@@": 3150, "ph\u00fac": 3151, "ph\u00fat": 3152, "ph\u01a1i": 3153, "ph\u01b0\u01a1@@": 3154, "ph\u01b0\u01a1ng": 3155, "ph\u01b0\u1eddng": 3156, "ph\u1ea1@@": 3157, "ph\u1ea1m": 3158, "ph\u1ea1t": 3159, "ph\u1ea3@@": 3160, "ph\u1ea3i": 3161, "ph\u1ea3n": 3162, "ph\u1ea5n": 3163, "ph\u1ea7n": 3164, "ph\u1ea9@@": 3165, "ph\u1ea9m": 3166, "ph\u1eabu": 3167, "ph\u1eadn": 3168, "ph\u1eb3ng": 3169, "ph\u1ecfng": 3170, "ph\u1ed1": 3171, "ph\u1ed1@@": 3172, "ph\u1ed1i": 3173, "ph\u1ed5": 3174, "ph\u1ee5": 3175, "ph\u1ee5@@": 3176, "ph\u1ee5c": 3177, "ph\u1ee5ng": 3178, "ph\u1ee7": 3179, "ph\u1ee7@@": 3180, "ph\u1ee9c": 3181, "pi": 3182, "pi@@": 3183, "play@@": 3184, "po@@": 3185, "port": 3186, "pound": 3187, "pp@@": 3188, "pri@@": 3189, "pro@@": 3190, "ps@@": 3191, "q": 3192, "q@@": 3193, "qu@@": 3194, "qua": 3195, "qua@@": 3196, "quan": 3197, "quang": 3198, "quanh": 3199, "quay": 3200, "que": 3201, "que@@": 3202, "quen": 3203, "quy": 3204, "quy@@": 3205, "quy\u00ean": 3206, "quy\u1ebfn": 3207, "quy\u1ebft": 3208, "quy\u1ec1n": 3209, "quy\u1ec3n": 3210, "qu\u00e0": 3211, "qu\u00e1": 3212, "qu\u00e1@@": 3213, "qu\u00e1i": 3214, "qu\u00e1n": 3215, "qu\u00e2n": 3216, "qu\u00e3ng": 3217, "qu\u00e9t": 3218, "qu\u00ean": 3219, "qu\u00fd": 3220, "qu\u1ea3": 3221, "qu\u1ea3@@": 3222, "qu\u1ea3n": 3223, "qu\u1ea3ng": 3224, "qu\u1ea5n": 3225, "qu\u1ea7n": 3226, "qu\u1eadn": 3227, "qu\u1eb7c": 3228, "qu\u1ed1@@": 3229, "qu\u1ed1c": 3230, "qu\u1ef9": 3231, "r": 3232, "r@@": 3233, "ra": 3234, "ra@@": 3235, "radio": 3236, "ran@@": 3237, "ras@@": 3238, "rau": 3239, "re": 3240, "re@@": 3241, "rei@@": 3242, "remix": 3243, "res@@": 3244, "ri": 3245, "ri@@": 3246, "rich": 3247, "rid": 3248, "ril": 3249, "rin@@": 3250, "ri\u00eang": 3251, "ro": 3252, "ro@@": 3253, "robot": 3254, "ron": 3255, "ron@@": 3256, "ros": 3257, "ru@@": 3258, "rung": 3259, "ru\u1ed9t": 3260, "ry": 3261, "ry@@": 3262, "r\u00e0ng": 3263, "r\u00e0o": 3264, "r\u00e1c": 3265, "r\u00e3": 3266, "r\u00e3i": 3267, "r\u00e9@@": 3268, "r\u00eca": 3269, "r\u00f4@@": 3270, "r\u00f5": 3271, "r\u00fa@@": 3272, "r\u00fat": 3273, "r\u0103ng": 3274, "r\u0169": 3275, "r\u01a1i": 3276, "r\u01b0\u1ee1i": 3277, "r\u01b0\u1ee3u": 3278, "r\u1ea1p": 3279, "r\u1ea3i": 3280, "r\u1ea5t": 3281, "r\u1eadm": 3282, "r\u1eaf@@": 3283, "r\u1eafc": 3284, "r\u1eafn": 3285, "r\u1eb1ng": 3286, "r\u1ebb": 3287, "r\u1ebd": 3288, "r\u1ed1@@": 3289, "r\u1ed1i": 3290, "r\u1ed3": 3291, "r\u1ed3i": 3292, "r\u1ed7ng": 3293, "r\u1ed9n": 3294, "r\u1ed9ng": 3295, "r\u1edbt": 3296, "r\u1eddi": 3297, "r\u1ee5ng": 3298, "r\u1eebng": 3299, "r\u1eeda": 3300, "s": 3301, "s-@@": 3302, "s.": 3303, "s@@": 3304, "sa": 3305, "sa@@": 3306, "sai": 3307, "sal@@": 3308, "samurai": 3309, "sang": 3310, "sao": 3311, "sao@@": 3312, "sar@@": 3313, "sau": 3314, "sau@@": 3315, "say": 3316, "sch@@": 3317, "se": 3318, "se@@": 3319, "see": 3320, "sen@@": 3321, "sh@@": 3322, "shi": 3323, "shi@@": 3324, "si@@": 3325, "sia": 3326, "sig@@": 3327, "sing": 3328, "sinh": 3329, "si\u00eau": 3330, "sk@@": 3331, "so": 3332, "so@@": 3333, "son": 3334, "son@@": 3335, "song": 3336, "so\u00e1t": 3337, "so\u1ea1n": 3338, "sson": 3339, "st@@": 3340, "sta@@": 3341, "ste@@": 3342, "ster@@": 3343, "ston": 3344, "str@@": 3345, "style": 3346, "su": 3347, "su@@": 3348, "suke": 3349, "sung": 3350, "suy": 3351, "su\u1ea5t": 3352, "su\u1ed1i": 3353, "su\u1ed1t": 3354, "s\u00e0ng": 3355, "s\u00e1@@": 3356, "s\u00e1ch": 3357, "s\u00e1ng": 3358, "s\u00e1nh": 3359, "s\u00e1t": 3360, "s\u00e1u": 3361, "s\u00e2n": 3362, "s\u00e2u": 3363, "s\u00f2ng": 3364, "s\u00f3@@": 3365, "s\u00f3c": 3366, "s\u00f3ng": 3367, "s\u00f3t": 3368, "s\u00f4@@": 3369, "s\u00f4i": 3370, "s\u00f4ng": 3371, "s\u00fa@@": 3372, "s\u00fac": 3373, "s\u00fang": 3374, "s\u00fat": 3375, "s\u0103n": 3376, "s\u0129": 3377, "s\u0129@@": 3378, "s\u01a1": 3379, "s\u01a1n": 3380, "s\u01b0": 3381, "s\u01b0@@": 3382, "s\u01b0\u01a1ng": 3383, "s\u01b0\u1eddn": 3384, "s\u1ea1@@": 3385, "s\u1ea1ch": 3386, "s\u1ea1n": 3387, "s\u1ea3n": 3388, "s\u1eafc": 3389, "s\u1eafp": 3390, "s\u1eaft": 3391, "s\u1eb5n": 3392, "s\u1ebb": 3393, "s\u1ebd": 3394, "s\u1ebfp": 3395, "s\u1ed1": 3396, "s\u1ed1@@": 3397, "s\u1ed1ng": 3398, "s\u1ed1t": 3399, "s\u1ed5": 3400, "s\u1edbm": 3401, "s\u1edf": 3402, "s\u1edf@@": 3403, "s\u1ee3": 3404, "s\u1ee3@@": 3405, "s\u1ee3i": 3406, "s\u1ee5p": 3407, "s\u1ee9": 3408, "s\u1ee9c": 3409, "s\u1eebng": 3410, "s\u1eed": 3411, "s\u1eed@@": 3412, "s\u1eeda": 3413, "s\u1eef@@": 3414, "s\u1ef1": 3415, "s\u1ef1@@": 3416, "t": 3417, "t-@@": 3418, "t.": 3419, "t.@@": 3420, "t@@": 3421, "ta": 3422, "ta@@": 3423, "tai": 3424, "tambon": 3425, "tan": 3426, "tan@@": 3427, "tang": 3428, "tao": 3429, "tap@@": 3430, "tay": 3431, "tay@@": 3432, "te": 3433, "te@@": 3434, "ten": 3435, "ten-@@": 3436, "ter": 3437, "ter@@": 3438, "tes@@": 3439, "th@@": 3440, "tha": 3441, "tha@@": 3442, "thai": 3443, "tham": 3444, "than": 3445, "than@@": 3446, "thang": 3447, "thanh": 3448, "thao": 3449, "thay": 3450, "the": 3451, "the@@": 3452, "theo": 3453, "theo@@": 3454, "ther@@": 3455, "thes@@": 3456, "thi": 3457, "thi@@": 3458, "thi\u00ean": 3459, "thi\u1ebf@@": 3460, "thi\u1ebfp": 3461, "thi\u1ebft": 3462, "thi\u1ebfu": 3463, "thi\u1ec7n": 3464, "thi\u1ec7p": 3465, "thi\u1ec7t": 3466, "tho@@": 3467, "tho\u00e1t": 3468, "tho\u1ea1i": 3469, "tho\u1ea3i": 3470, "tho\u1ea3ng": 3471, "thu": 3472, "thu@@": 3473, "thua": 3474, "thung": 3475, "thuy@@": 3476, "thuy\u1ebft": 3477, "thuy\u1ec1@@": 3478, "thuy\u1ec1n": 3479, "thu\u00ea": 3480, "thu\u1ea7n": 3481, "thu\u1ead@@": 3482, "thu\u1eadn": 3483, "thu\u1eadt": 3484, "thu\u1ebf": 3485, "thu\u1ebf@@": 3486, "thu\u1ed1@@": 3487, "thu\u1ed1c": 3488, "thu\u1ed9c": 3489, "thu\u1ef7": 3490, "th\u00e0@@": 3491, "th\u00e0nh": 3492, "th\u00e1@@": 3493, "th\u00e1c": 3494, "th\u00e1ch": 3495, "th\u00e1i": 3496, "th\u00e1ng": 3497, "th\u00e1nh": 3498, "th\u00e1o": 3499, "th\u00e1p": 3500, "th\u00e2@@": 3501, "th\u00e2n": 3502, "th\u00ea@@": 3503, "th\u00eam": 3504, "th\u00ec": 3505, "th\u00ec@@": 3506, "th\u00ed": 3507, "th\u00ed@@": 3508, "th\u00edch": 3509, "th\u00f3i": 3510, "th\u00f4": 3511, "th\u00f4@@": 3512, "th\u00f4i": 3513, "th\u00f4n": 3514, "th\u00f4ng": 3515, "th\u00f9": 3516, "th\u00f9ng": 3517, "th\u00fa": 3518, "th\u00fa@@": 3519, "th\u00fac": 3520, "th\u0103m": 3521, "th\u0103ng": 3522, "th\u01a1": 3523, "th\u01a1@@": 3524, "th\u01b0": 3525, "th\u01b0@@": 3526, "th\u01b0a": 3527, "th\u01b0\u01a1@@": 3528, "th\u01b0\u01a1ng": 3529, "th\u01b0\u1edbc": 3530, "th\u01b0\u1edd@@": 3531, "th\u01b0\u1eddng": 3532, "th\u01b0\u1edfng": 3533, "th\u01b0\u1ee3ng": 3534, "th\u1ea1ch": 3535, "th\u1ea3": 3536, "th\u1ea3@@": 3537, "th\u1ea3i": 3538, "th\u1ea3m": 3539, "th\u1ea3o": 3540, "th\u1ea5@@": 3541, "th\u1ea5p": 3542, "th\u1ea5t": 3543, "th\u1ea5u": 3544, "th\u1ea5y": 3545, "th\u1ea7@@": 3546, "th\u1ea7n": 3547, "th\u1ea7y": 3548, "th\u1ea9m": 3549, "th\u1ead@@": 3550, "th\u1eadm": 3551, "th\u1eadn": 3552, "th\u1eadp": 3553, "th\u1eadt": 3554, "th\u1eaf@@": 3555, "th\u1eafng": 3556, "th\u1eaft": 3557, "th\u1eb1ng": 3558, "th\u1eb3@@": 3559, "th\u1eb3ng": 3560, "th\u1ebb": 3561, "th\u1ebf": 3562, "th\u1ebf@@": 3563, "th\u1ec3": 3564, "th\u1ec3@@": 3565, "th\u1ecb": 3566, "th\u1ecb@@": 3567, "th\u1ecbnh": 3568, "th\u1ecbt": 3569, "th\u1ecf": 3570, "th\u1ed1@@": 3571, "th\u1ed5": 3572, "th\u1ed5@@": 3573, "th\u1edd": 3574, "th\u1edd@@": 3575, "th\u1eddi": 3576, "th\u1edf": 3577, "th\u1ee3": 3578, "th\u1ee5": 3579, "th\u1ee7": 3580, "th\u1ee7@@": 3581, "th\u1ee9": 3582, "th\u1ee9@@": 3583, "th\u1ee9c": 3584, "th\u1eeba": 3585, "th\u1eed": 3586, "th\u1ef1@@": 3587, "th\u1ef1c": 3588, "ti": 3589, "ti@@": 3590, "tia": 3591, "tic": 3592, "tic@@": 3593, "tica": 3594, "tico": 3595, "tim": 3596, "tim@@": 3597, "times": 3598, "tin": 3599, "tin@@": 3600, "tinh": 3601, "tion@@": 3602, "ti\u00ea@@": 3603, "ti\u00eam": 3604, "ti\u00ean": 3605, "ti\u00eau": 3606, "ti\u1ebf@@": 3607, "ti\u1ebfc": 3608, "ti\u1ebfn": 3609, "ti\u1ebfng": 3610, "ti\u1ebfp": 3611, "ti\u1ebft": 3612, "ti\u1ec1@@": 3613, "ti\u1ec1m": 3614, "ti\u1ec1n": 3615, "ti\u1ec3u": 3616, "ti\u1ec7@@": 3617, "ti\u1ec7c": 3618, "ti\u1ec7n": 3619, "tle": 3620, "tle@@": 3621, "to": 3622, "to@@": 3623, "ton": 3624, "ton@@": 3625, "tor@@": 3626, "tour": 3627, "tov": 3628, "to\u00e0@@": 3629, "to\u00e0n": 3630, "to\u00e1n": 3631, "tr@@": 3632, "tra": 3633, "tra@@": 3634, "trai": 3635, "trang": 3636, "tranh": 3637, "trao": 3638, "tre": 3639, "treo": 3640, "tri": 3641, "tri@@": 3642, "trinh": 3643, "tri\u1ec1u": 3644, "tri\u1ec3n": 3645, "tri\u1ec7u": 3646, "tro": 3647, "tro@@": 3648, "trong": 3649, "trung": 3650, "truy": 3651, "truy@@": 3652, "truy\u1ec1n": 3653, "truy\u1ec7n": 3654, "tr\u00e0@@": 3655, "tr\u00e0o": 3656, "tr\u00e1@@": 3657, "tr\u00e1ch": 3658, "tr\u00e1i": 3659, "tr\u00e1nh": 3660, "tr\u00ea@@": 3661, "tr\u00ean": 3662, "tr\u00ec": 3663, "tr\u00ec@@": 3664, "tr\u00ecnh": 3665, "tr\u00ed": 3666, "tr\u00edch": 3667, "tr\u00f2": 3668, "tr\u00f2n": 3669, "tr\u00f4ng": 3670, "tr\u00f9@@": 3671, "tr\u00f9m": 3672, "tr\u00fa": 3673, "tr\u00fa@@": 3674, "tr\u00fac": 3675, "tr\u0103@@": 3676, "tr\u0103m": 3677, "tr\u0103ng": 3678, "tr\u01b0ng": 3679, "tr\u01b0\u01a1ng": 3680, "tr\u01b0\u1edb@@": 3681, "tr\u01b0\u1edbc": 3682, "tr\u01b0\u1edd@@": 3683, "tr\u01b0\u1eddng": 3684, "tr\u01b0\u1edf@@": 3685, "tr\u01b0\u1edfng": 3686, "tr\u01b0\u1ee3t": 3687, "tr\u1ea1@@": 3688, "tr\u1ea1i": 3689, "tr\u1ea1m": 3690, "tr\u1ea1ng": 3691, "tr\u1ea3": 3692, "tr\u1ea3i": 3693, "tr\u1ea5@@": 3694, "tr\u1ea5n": 3695, "tr\u1eadn": 3696, "tr\u1eadt": 3697, "tr\u1eaf@@": 3698, "tr\u1eafc": 3699, "tr\u1eafng": 3700, "tr\u1ebb": 3701, "tr\u1ebb@@": 3702, "tr\u1ec5": 3703, "tr\u1ecb": 3704, "tr\u1ecb@@": 3705, "tr\u1ecd@@": 3706, "tr\u1ecdn": 3707, "tr\u1ecdng": 3708, "tr\u1ed1@@": 3709, "tr\u1ed1n": 3710, "tr\u1ed1ng": 3711, "tr\u1ed3ng": 3712, "tr\u1ed9m": 3713, "tr\u1ed9n": 3714, "tr\u1eddi": 3715, "tr\u1edf": 3716, "tr\u1ee3": 3717, "tr\u1ee5": 3718, "tr\u1ee5c": 3719, "tr\u1ee9ng": 3720, "tr\u1eeb": 3721, "tr\u1eebng": 3722, "tr\u1eef": 3723, "tr\u1ef1c": 3724, "ts": 3725, "ts@@": 3726, "tt@@": 3727, "tu": 3728, "tu@@": 3729, "tung": 3730, "tur@@": 3731, "tus": 3732, "tuy\u00ean": 3733, "tuy\u1ebf@@": 3734, "tuy\u1ebfn": 3735, "tuy\u1ebft": 3736, "tuy\u1ec3n": 3737, "tuy\u1ec7t": 3738, "tu\u00e2n": 3739, "tu\u1ea7n": 3740, "tu\u1ed5@@": 3741, "tu\u1ed5i": 3742, "ty": 3743, "ty@@": 3744, "t\u00e0@@": 3745, "t\u00e0i": 3746, "t\u00e0n": 3747, "t\u00e0ng": 3748, "t\u00e0u": 3749, "t\u00e1": 3750, "t\u00e1@@": 3751, "t\u00e1c": 3752, "t\u00e1ch": 3753, "t\u00e1i": 3754, "t\u00e1n": 3755, "t\u00e2@@": 3756, "t\u00e2m": 3757, "t\u00e2n": 3758, "t\u00e2y": 3759, "t\u00ea@@": 3760, "t\u00ean": 3761, "t\u00ec@@": 3762, "t\u00ecm": 3763, "t\u00ecnh": 3764, "t\u00ed": 3765, "t\u00ed@@": 3766, "t\u00edch": 3767, "t\u00edch@@": 3768, "t\u00edn": 3769, "t\u00ednh": 3770, "t\u00f2@@": 3771, "t\u00f3@@": 3772, "t\u00f3c": 3773, "t\u00f4": 3774, "t\u00f4@@": 3775, "t\u00f4i": 3776, "t\u00f4n": 3777, "t\u00f9": 3778, "t\u00f9@@": 3779, "t\u00fa@@": 3780, "t\u00fac": 3781, "t\u00fai": 3782, "t\u0103@@": 3783, "t\u0103m": 3784, "t\u0103ng": 3785, "t\u0129@@": 3786, "t\u01a1": 3787, "t\u01a1@@": 3788, "t\u01b0": 3789, "t\u01b0@@": 3790, "t\u01b0\u01a1i": 3791, "t\u01b0\u01a1ng": 3792, "t\u01b0\u1edbc": 3793, "t\u01b0\u1edbng": 3794, "t\u01b0\u1eddng": 3795, "t\u01b0\u1edf@@": 3796, "t\u01b0\u1edfng": 3797, "t\u01b0\u1ee3@@": 3798, "t\u01b0\u1ee3ng": 3799, "t\u1ea1": 3800, "t\u1ea1@@": 3801, "t\u1ea1i": 3802, "t\u1ea1m": 3803, "t\u1ea1o": 3804, "t\u1ea1p": 3805, "t\u1ea3": 3806, "t\u1ea3i": 3807, "t\u1ea3ng": 3808, "t\u1ea5m": 3809, "t\u1ea5n": 3810, "t\u1ea5t": 3811, "t\u1ea7@@": 3812, "t\u1ea7m": 3813, "t\u1ea7n": 3814, "t\u1ea7ng": 3815, "t\u1eadn": 3816, "t\u1eadp": 3817, "t\u1eafc": 3818, "t\u1eafm": 3819, "t\u1eaft": 3820, "t\u1eb7ng": 3821, "t\u1ebb@@": 3822, "t\u1ebf": 3823, "t\u1ebf@@": 3824, "t\u1ec7": 3825, "t\u1ec7@@": 3826, "t\u1ec9": 3827, "t\u1ec9@@": 3828, "t\u1ec9nh": 3829, "t\u1ecbch": 3830, "t\u1ecf": 3831, "t\u1ed1": 3832, "t\u1ed1@@": 3833, "t\u1ed1c": 3834, "t\u1ed1i": 3835, "t\u1ed1n": 3836, "t\u1ed1ng": 3837, "t\u1ed1t": 3838, "t\u1ed3@@": 3839, "t\u1ed3i": 3840, "t\u1ed3n": 3841, "t\u1ed5": 3842, "t\u1ed5n": 3843, "t\u1ed5ng": 3844, "t\u1ed9@@": 3845, "t\u1ed9c": 3846, "t\u1ed9i": 3847, "t\u1edb": 3848, "t\u1edbi": 3849, "t\u1edd": 3850, "t\u1ee5": 3851, "t\u1ee5c": 3852, "t\u1ee9@@": 3853, "t\u1ee9c": 3854, "t\u1eeb": 3855, "t\u1eeb@@": 3856, "t\u1eebng": 3857, "t\u1eed": 3858, "t\u1eed@@": 3859, "t\u1ef1": 3860, "t\u1ef1@@": 3861, "t\u1ef1u": 3862, "t\u1ef7": 3863, "t\u1ef7@@": 3864, "u": 3865, "u.": 3866, "u.@@": 3867, "u@@": 3868, "ua": 3869, "ud@@": 3870, "ul@@": 3871, "um": 3872, "um@@": 3873, "umi": 3874, "un": 3875, "un@@": 3876, "ung": 3877, "up@@": 3878, "ur": 3879, "ur@@": 3880, "us": 3881, "us@@": 3882, "uss": 3883, "uy@@": 3884, "uy\u1ebfn": 3885, "u\u1ed1@@": 3886, "u\u1ed1ng": 3887, "v": 3888, "v@@": 3889, "va": 3890, "va@@": 3891, "vai": 3892, "van@@": 3893, "ve": 3894, "ve@@": 3895, "vec@@": 3896, "ven": 3897, "ver": 3898, "ver@@": 3899, "ves@@": 3900, "vi": 3901, "vi-@@": 3902, "vi@@": 3903, "vid@@": 3904, "video": 3905, "vinh": 3906, "virus": 3907, "vis@@": 3908, "visi@@": 3909, "vi\u00ea@@": 3910, "vi\u00eam": 3911, "vi\u00ean": 3912, "vi\u1ebf@@": 3913, "vi\u1ebft": 3914, "vi\u1ec5n": 3915, "vi\u1ec7@@": 3916, "vi\u1ec7c": 3917, "vi\u1ec7n": 3918, "vo": 3919, "vo@@": 3920, "voi": 3921, "von": 3922, "vong": 3923, "vor@@": 3924, "vu@@": 3925, "vua": 3926, "vui": 3927, "vu\u00f4ng": 3928, "v\u00e0": 3929, "v\u00e0@@": 3930, "v\u00e0i": 3931, "v\u00e0ng": 3932, "v\u00e0o": 3933, "v\u00e9": 3934, "v\u00ec": 3935, "v\u00ed": 3936, "v\u00f2m": 3937, "v\u00f2ng": 3938, "v\u00f4": 3939, "v\u00f4@@": 3940, "v\u00f9ng": 3941, "v\u0103n": 3942, "v\u0169": 3943, "v\u01a1@@": 3944, "v\u01b0\u01a1ng": 3945, "v\u01b0\u1eddn": 3946, "v\u01b0\u1ee3t": 3947, "v\u1ea3i": 3948, "v\u1ea5n": 3949, "v\u1eabn": 3950, "v\u1ead@@": 3951, "v\u1eadn": 3952, "v\u1eadt": 3953, "v\u1eady": 3954, "v\u1eb7n": 3955, "v\u1ebb": 3956, "v\u1ebd": 3957, "v\u1ebd@@": 3958, "v\u1ebft": 3959, "v\u1ec1": 3960, "v\u1ec1@@": 3961, "v\u1ec7": 3962, "v\u1ec7@@": 3963, "v\u1ecb": 3964, "v\u1ecb@@": 3965, "v\u1ecbnh": 3966, "v\u1ecd@@": 3967, "v\u1ecdng": 3968, "v\u1ecf": 3969, "v\u1ed1n": 3970, "v\u1ed3ng": 3971, "v\u1ed7": 3972, "v\u1edbi": 3973, "v\u1edd": 3974, "v\u1eddi": 3975, "v\u1edf": 3976, "v\u1ee1": 3977, "v\u1ee3": 3978, "v\u1ee3@@": 3979, "v\u1ee3t": 3980, "v\u1ee5": 3981, "v\u1ee5@@": 3982, "v\u1eeba": 3983, "v\u1eefng": 3984, "v\u1ef1c": 3985, "w": 3986, "w@@": 3987, "wa": 3988, "wal@@": 3989, "wan": 3990, "way": 3991, "we": 3992, "we@@": 3993, "web": 3994, "website": 3995, "won@@": 3996, "ws@@": 3997, "x": 3998, "x.": 3999, "x@@": 4000, "xa": 4001, "xa@@": 4002, "xanh": 4003, "xao": 4004, "xe": 4005, "xe@@": 4006, "xem": 4007, "xi@@": 4008, "xin": 4009, "xinh": 4010, "xong": 4011, "xo\u1eafn": 4012, "xu": 4013, "xu@@": 4014, "xung": 4015, "xuy\u00ean": 4016, "xu\u00f4@@": 4017, "xu\u1ea5t": 4018, "xu\u1ed1@@": 4019, "xu\u1ed1ng": 4020, "xu\u1ed3ng": 4021, "xy@@": 4022, "x\u00e0o": 4023, "x\u00e1c": 4024, "x\u00e2m": 4025, "x\u00e2y": 4026, "x\u00e3": 4027, "x\u00e9": 4028, "x\u00e9t": 4029, "x\u00edch": 4030, "x\u00edu": 4031, "x\u00f3@@": 4032, "x\u00fac": 4033, "x\u01a1": 4034, "x\u01b0ng": 4035, "x\u01b0\u01a1ng": 4036, "x\u01b0\u1edbng": 4037, "x\u01b0\u1edfng": 4038, "x\u1ea1": 4039, "x\u1ea3y": 4040, "x\u1ea5u": 4041, "x\u1ebfp": 4042, "x\u1ec9": 4043, "x\u1ee9": 4044, "x\u1ee9ng": 4045, "x\u1eed": 4046, "x\u1eed@@": 4047, "y": 4048, "y-@@": 4049, "y.": 4050, "y.@@": 4051, "y@@": 4052, "yl": 4053, "yl@@": 4054, "yne": 4055, "yo@@": 4056, "you": 4057, "ys@@": 4058, "y\u00ea@@": 4059, "y\u00ean": 4060, "y\u00eau": 4061, "y\u1ebfu": 4062, "z": 4063, "z@@": 4064, "za@@": 4065, "zan@@": 4066, "ze@@": 4067, "zer": 4068, "zer@@": 4069, "zi@@": 4070, "{@@": 4071, "}": 4072, "}@@": 4073, "\u00b0@@": 4074, "\u00b2@@": 4075, "\u00b6": 4076, "\u00bd": 4077, "\u00c0@@": 4078, "\u00c1": 4079, "\u00c1@@": 4080, "\u00c1o": 4081, "\u00c2@@": 4082, "\u00c2m": 4083, "\u00c2u": 4084, "\u00cd": 4085, "\u00cdt": 4086, "\u00d4@@": 4087, "\u00d4ng": 4088, "\u00d7": 4089, "\u00da@@": 4090, "\u00dac": 4091, "\u00dd": 4092, "\u00dd@@": 4093, "\u00e0@@": 4094, "\u00e0n": 4095, "\u00e0ng": 4096, "\u00e1@@": 4097, "\u00e1c": 4098, "\u00e1ch": 4099, "\u00e1i": 4100, "\u00e1m": 4101, "\u00e1n": 4102, "\u00e1n@@": 4103, "\u00e1nh": 4104, "\u00e1o": 4105, "\u00e1p": 4106, "\u00e1t": 4107, "\u00e2@@": 4108, "\u00e2m": 4109, "\u00e2n": 4110, "\u00e2n.": 4111, "\u00e2n@@": 4112, "\u00e2y": 4113, "\u00e3@@": 4114, "\u00e4@@": 4115, "\u00e8@@": 4116, "\u00e9": 4117, "\u00e9@@": 4118, "\u00e9p": 4119, "\u00ea@@": 4120, "\u00ec@@": 4121, "\u00ed": 4122, "\u00ed@@": 4123, "\u00eda": 4124, "\u00edch": 4125, "\u00edt": 4126, "\u00f2": 4127, "\u00f2@@": 4128, "\u00f3@@": 4129, "\u00f3c": 4130, "\u00f3n": 4131, "\u00f3w": 4132, "\u00f4": 4133, "\u00f4@@": 4134, "\u00f4ng": 4135, "\u00f4ng@@": 4136, "\u00f5@@": 4137, "\u00f6@@": 4138, "\u00f9@@": 4139, "\u00fa@@": 4140, "\u00fc@@": 4141, "\u00fd": 4142, "\u00fd@@": 4143, "\u0103@@": 4144, "\u0103n": 4145, "\u0103ng": 4146, "\u0103ng.": 4147, "\u0110@@": 4148, "\u0110a": 4149, "\u0110an": 4150, "\u0110i": 4151, "\u0110i\u1ec1u": 4152, "\u0110i\u1ec3@@": 4153, "\u0110i\u1ec3m": 4154, "\u0110i\u1ec3n": 4155, "\u0110i\u1ec7n": 4156, "\u0110\u00e0i": 4157, "\u0110\u00e0o": 4158, "\u0110\u00e1ng": 4159, "\u0110\u00e1p": 4160, "\u0110\u00e2y": 4161, "\u0110\u00e3": 4162, "\u0110\u00f3": 4163, "\u0110\u00f4": 4164, "\u0110\u00f4@@": 4165, "\u0110\u00f4i": 4166, "\u0110\u00f4ng": 4167, "\u0110\u00fang": 4168, "\u0110\u01a1n": 4169, "\u0110\u01b0a": 4170, "\u0110\u01b0\u01a1ng": 4171, "\u0110\u01b0\u1eddng": 4172, "\u0110\u01b0\u1ee3c": 4173, "\u0110\u1ea1i": 4174, "\u0110\u1ea3ng": 4175, "\u0110\u1ea5@@": 4176, "\u0110\u1ea5t": 4177, "\u0110\u1ea7u": 4178, "\u0110\u1eb7c": 4179, "\u0110\u1ebf": 4180, "\u0110\u1ebfn": 4181, "\u0110\u1ec3": 4182, "\u0110\u1ecba": 4183, "\u0110\u1ed1i": 4184, "\u0110\u1ed3ng": 4185, "\u0110\u1ed9": 4186, "\u0110\u1ed9@@": 4187, "\u0110\u1ed9i": 4188, "\u0110\u1ee7": 4189, "\u0110\u1ee9c": 4190, "\u0110\u1ee9ng": 4191, "\u0110\u1eebng": 4192, "\u0111@@": 4193, "\u0111a": 4194, "\u0111a@@": 4195, "\u0111ai": 4196, "\u0111ang": 4197, "\u0111ao": 4198, "\u0111au": 4199, "\u0111c": 4200, "\u0111e": 4201, "\u0111em": 4202, "\u0111eo": 4203, "\u0111i": 4204, "\u0111i@@": 4205, "\u0111inh": 4206, "\u0111i\u00ea@@": 4207, "\u0111i\u00ean": 4208, "\u0111i\u1ec1u": 4209, "\u0111i\u1ec3@@": 4210, "\u0111i\u1ec3m": 4211, "\u0111i\u1ec3n": 4212, "\u0111i\u1ec7@@": 4213, "\u0111i\u1ec7n": 4214, "\u0111i\u1ec7u": 4215, "\u0111o": 4216, "\u0111o@@": 4217, "\u0111o\u00e0n": 4218, "\u0111o\u00e1n": 4219, "\u0111o\u1ea1@@": 4220, "\u0111o\u1ea1n": 4221, "\u0111u@@": 4222, "\u0111ua": 4223, "\u0111u\u00f4i": 4224, "\u0111u\u1ed5i": 4225, "\u0111\u00e0i": 4226, "\u0111\u00e0n": 4227, "\u0111\u00e0o": 4228, "\u0111\u00e1": 4229, "\u0111\u00e1@@": 4230, "\u0111\u00e1m": 4231, "\u0111\u00e1ng": 4232, "\u0111\u00e1nh": 4233, "\u0111\u00e1p": 4234, "\u0111\u00e1y": 4235, "\u0111\u00e2@@": 4236, "\u0111\u00e2m": 4237, "\u0111\u00e2u": 4238, "\u0111\u00e2y": 4239, "\u0111\u00e3": 4240, "\u0111\u00e3@@": 4241, "\u0111\u00e8": 4242, "\u0111\u00ea@@": 4243, "\u0111\u00eam": 4244, "\u0111\u00ecnh": 4245, "\u0111\u00edch": 4246, "\u0111\u00f2i": 4247, "\u0111\u00f3": 4248, "\u0111\u00f3@@": 4249, "\u0111\u00f3i": 4250, "\u0111\u00f3n": 4251, "\u0111\u00f3ng": 4252, "\u0111\u00f4": 4253, "\u0111\u00f4@@": 4254, "\u0111\u00f4i": 4255, "\u0111\u00f4ng": 4256, "\u0111\u00fa@@": 4257, "\u0111\u00fang": 4258, "\u0111\u0103ng": 4259, "\u0111\u0129a": 4260, "\u0111\u01a1@@": 4261, "\u0111\u01a1n": 4262, "\u0111\u01b0a": 4263, "\u0111\u01b0\u01a1@@": 4264, "\u0111\u01b0\u01a1ng": 4265, "\u0111\u01b0\u1edd@@": 4266, "\u0111\u01b0\u1eddng": 4267, "\u0111\u01b0\u1ee3@@": 4268, "\u0111\u01b0\u1ee3c": 4269, "\u0111\u01b0\u1ee3c@@": 4270, "\u0111\u1ea1@@": 4271, "\u0111\u1ea1i": 4272, "\u0111\u1ea1n": 4273, "\u0111\u1ea1o": 4274, "\u0111\u1ea1p": 4275, "\u0111\u1ea1t": 4276, "\u0111\u1ea3@@": 4277, "\u0111\u1ea3m": 4278, "\u0111\u1ea3ng": 4279, "\u0111\u1ea3o": 4280, "\u0111\u1ea5@@": 4281, "\u0111\u1ea5ng": 4282, "\u0111\u1ea5t": 4283, "\u0111\u1ea5u": 4284, "\u0111\u1ea5y": 4285, "\u0111\u1ea7@@": 4286, "\u0111\u1ea7m": 4287, "\u0111\u1ea7u": 4288, "\u0111\u1ea7y": 4289, "\u0111\u1ea9y": 4290, "\u0111\u1eadm": 4291, "\u0111\u1eadu": 4292, "\u0111\u1eafng": 4293, "\u0111\u1eb1ng": 4294, "\u0111\u1eb3ng": 4295, "\u0111\u1eb7c": 4296, "\u0111\u1eb7t": 4297, "\u0111\u1eb9p": 4298, "\u0111\u1ebf": 4299, "\u0111\u1ebf@@": 4300, "\u0111\u1ebfm": 4301, "\u0111\u1ebfn": 4302, "\u0111\u1ec1": 4303, "\u0111\u1ec1n": 4304, "\u0111\u1ec1u": 4305, "\u0111\u1ec3": 4306, "\u0111\u1ec7": 4307, "\u0111\u1ec7m": 4308, "\u0111\u1ec9nh": 4309, "\u0111\u1ecb@@": 4310, "\u0111\u1ecba": 4311, "\u0111\u1ecbch": 4312, "\u0111\u1ecbnh": 4313, "\u0111\u1ecdc": 4314, "\u0111\u1ecf": 4315, "\u0111\u1ed1@@": 4316, "\u0111\u1ed1c": 4317, "\u0111\u1ed1i": 4318, "\u0111\u1ed1ng": 4319, "\u0111\u1ed1t": 4320, "\u0111\u1ed3": 4321, "\u0111\u1ed3@@": 4322, "\u0111\u1ed3i": 4323, "\u0111\u1ed3ng": 4324, "\u0111\u1ed5": 4325, "\u0111\u1ed5@@": 4326, "\u0111\u1ed5i": 4327, "\u0111\u1ed7": 4328, "\u0111\u1ed9": 4329, "\u0111\u1ed9@@": 4330, "\u0111\u1ed9c": 4331, "\u0111\u1ed9i": 4332, "\u0111\u1ed9ng": 4333, "\u0111\u1ed9t": 4334, "\u0111\u1edbi": 4335, "\u0111\u1edd@@": 4336, "\u0111\u1eddi": 4337, "\u0111\u1ee1": 4338, "\u0111\u1ee3i": 4339, "\u0111\u1ee3t": 4340, "\u0111\u1ee5ng": 4341, "\u0111\u1ee7": 4342, "\u0111\u1ee9@@": 4343, "\u0111\u1ee9a": 4344, "\u0111\u1ee9c": 4345, "\u0111\u1ee9ng": 4346, "\u0111\u1eebng": 4347, "\u0111\u1ef1ng": 4348, "\u0119@@": 4349, "\u011f@@": 4350, "\u0142@@": 4351, "\u0144": 4352, "\u014c@@": 4353, "\u014d": 4354, "\u014d@@": 4355, "\u014f@@": 4356, "\u0169@@": 4357, "\u0169ng": 4358, "\u016b": 4359, "\u016b@@": 4360, "\u017b@@": 4361, "\u017c@@": 4362, "\u01a1@@": 4363, "\u01a1i": 4364, "\u01a1n": 4365, "\u01b0@@": 4366, "\u01b0a": 4367, "\u01b0a@@": 4368, "\u01b0u": 4369, "\u01b0\u01a1@@": 4370, "\u01b0\u01a1i": 4371, "\u01b0\u01a1ng@@": 4372, "\u01b0\u1edb@@": 4373, "\u01b0\u1edbc": 4374, "\u01b0\u1edbp": 4375, "\u01b0\u1edbt": 4376, "\u01b0\u1edd@@": 4377, "\u01b0\u1ee3@@": 4378, "\u0300": 4379, "\u0300@@": 4380, "\u0301": 4381, "\u0301@@": 4382, "\u0303": 4383, "\u0303@@": 4384, "\u0309": 4385, "\u0309@@": 4386, "\u0323": 4387, "\u0323@@": 4388, "\u03c3": 4389, "\u0411@@": 4390, "\u0414@@": 4391, "\u0423@@": 4392, "\u043e@@": 4393, "\u0448@@": 4394, "\u044b@@": 4395, "\u0493@@": 4396, "\u0631@@": 4397, "\u0634@@": 4398, "\u0642@@": 4399, "\u1ea1@@": 4400, "\u1ea1m": 4401, "\u1ea1p": 4402, "\u1ea2": 4403, "\u1ea3": 4404, "\u1ea3@@": 4405, "\u1ea3nh": 4406, "\u1ea3o": 4407, "\u1ea4n": 4408, "\u1ea5@@": 4409, "\u1ea5m": 4410, "\u1ea5n": 4411, "\u1ea5u": 4412, "\u1ea5y": 4413, "\u1ea7": 4414, "\u1ea7@@": 4415, "\u1ea9@@": 4416, "\u1ea9m": 4417, "\u1ea9n": 4418, "\u1eab@@": 4419, "\u1ead@@": 4420, "\u1eadm": 4421, "\u1eadp": 4422, "\u1eadp@@": 4423, "\u1eaf@@": 4424, "\u1eafc": 4425, "\u1eb1@@": 4426, "\u1eb3@@": 4427, "\u1eb7@@": 4428, "\u1eb7n": 4429, "\u1ebb@@": 4430, "\u1ebd@@": 4431, "\u1ebf@@": 4432, "\u1ebfch": 4433, "\u1ec1@@": 4434, "\u1ec3": 4435, "\u1ec7": 4436, "\u1ec7@@": 4437, "\u1ec9@@": 4438, "\u1ecd@@": 4439, "\u1ecf@@": 4440, "\u1ed1@@": 4441, "\u1ed1c": 4442, "\u1ed1ng": 4443, "\u1ed2@@": 4444, "\u1ed3": 4445, "\u1ed3@@": 4446, "\u1ed5": 4447, "\u1ed5@@": 4448, "\u1ed5n": 4449, "\u1ed5ng": 4450, "\u1ed7": 4451, "\u1ed7@@": 4452, "\u1ed9@@": 4453, "\u1edb@@": 4454, "\u1edbm": 4455, "\u1edbn": 4456, "\u1edd@@": 4457, "\u1ede": 4458, "\u1edf": 4459, "\u1edf@@": 4460, "\u1ee1": 4461, "\u1ee1@@": 4462, "\u1ee3@@": 4463, "\u1ee5@@": 4464, "\u1ee5t": 4465, "\u1ee6@@": 4466, "\u1ee7@@": 4467, "\u1ee7i": 4468, "\u1ee7ng": 4469, "\u1ee8ng": 4470, "\u1ee9@@": 4471, "\u1ee9ng": 4472, "\u1eea@@": 4473, "\u1eeb@@": 4474, "\u1ef1@@": 4475, "\u1ef3@@": 4476, "\u1ef7@@": 4477, "\u1ef9@@": 4478, "\u200b\u200b@@": 4479, "\u200e": 4480, "\u2013": 4481, "\u2013@@": 4482, "\u2014": 4483, "\u2014@@": 4484, "\u2019": 4485, "\u2019@@": 4486, "\u201c@@": 4487, "\u201d@@": 4488, "\u2032": 4489, "\u2191": 4490, "\u2192": 4491, "\u2208": 4492, "\u2212": 4493, "\u2212@@": 4494, "\u222b": 4495, "\u22c5": 4496, "\u266a": 4497, "\u306b@@": 4498, "\u306e@@": 4499, "\u3088@@": 4500, "\u4e00@@": 4501, "\u8cde@@": 4502}